{"version": "bpe_v1", "vocab": {"<pad>": 0, "<unk>": 1, "<bos>": 2, "<eos>": 3, "<sep>": 4, "\n": 5, " ": 6, "'": 7, "(": 8, ")": 9, "*": 10, "+": 11, ",": 12, "-": 13, ".": 14, "0": 15, "1": 16, "2": 17, "3": 18, "4": 19, "5": 20, "6": 21, "7": 22, "8": 23, "9": 24, ":": 25, ";": 26, "=": 27, "?": 28, "A": 29, "B": 30, "C": 31, "D": 32, "E": 33, "F": 34, "G": 35, "H": 36, "I": 37, "J": 38, "K": 39, "L": 40, "M": 41, "N": 42, "O": 43, "P": 44, "Q": 45, "R": 46, "S": 47, "T": 48, "U": 49, "V": 50, "W": 51, "_": 52, "a": 53, "b": 54, "c": 55, "d": 56, "e": 57, "f": 58, "g": 59, "h": 60, "i": 61, "j": 62, "k": 63, "l": 64, "m": 65, "n": 66, "o": 67, "p": 68, "q": 69, "r": 70, "s": 71, "t": 72, "u": 73, "v": 74, "w": 75, "x": 76, "y": 77, "z": 78, "Á": 79, "É": 80, "à": 81, "á": 82, "â": 83, "ã": 84, "ç": 85, "é": 86, "ê": 87, "í": 88, "ó": 89, "ô": 90, "õ": 91, "ú": 92, "—": 93, "de": 94, "es": 95, "TA": 96, "ra": 97, "nt": 98, "os": 99, "ma": 100, "co": 101, "er": 102, "qu": 103, "ar": 104, "do": 105, "da": 106, "is": 107, "\n\n": 108, "ER": 109, "in": 110, "me": 111, "re": 112, "ão": 113, "ES": 114, "ta": 115, "PER": 116, "GU": 117, "NTA": 118, "RES": 119, "PO": 120, "STA": 121, "GUNTA": 122, "POSTA": 123, "PERGUNTA": 124, "RESPOSTA": 125, "que": 126, "al": 127, "as": 128, "em": 129, "or": 130, "ic": 131, "ro": 132, "com": 133, "te": 134, "ve": 135, "an": 136, "ção": 137, "pa": 138, "og": 139, "to": 140, "ri": 141, "ti": 142, "on": 143, "nto": 144, "le": 145, "la": 146, "jog": 147, "di": 148, "en": 149, "us": 150, "ua": 151, "ha": 152, "ent": 153, "mo": 154, "pro": 155, "lo": 156, "li": 157, "ci": 158, "po": 159, "mais": 160, "para": 161, "um": 162, "por": 163, "ce": 164, "Qua": 165, "tu": 166, "ica": 167, "Quanto": 168, "si": 169, "vi": 170, "no": 171, "nos": 172, "dade": 173, "pe": 174, "so": 175, "ca": 176, "ver": 177, "res": 178, "ing": 179, "jogo": 180, "se": 181, "menos": 182, "dos": 183, "un": 184, "ga": 185, "he": 186, "uma": 187, "tes": 188, "pl": 189, "ob": 190, "nte": 191, "des": 192, "vez": 193, "ões": 194, "per": 195, "gra": 196, "ine": 197, "tra": 198, "con": 199, "ul": 200, "mi": 201, "tos": 202, "ge": 203, "ba": 204, "za": 205, "pos": 206, "mento": 207, "ex": 208, "ções": 209, "cri": 210, "je": 211, "go": 212, "ou": 213, "ts": 214, "par": 215, "ima": 216, "ali": 217, "du": 218, "são": 219, "tura": 220, "vezes": 221, "gu": 222, "fa": 223, "tar": 224, "ada": 225, "ado": 226, "for": 227, "Co": 228, "am": 229, "ter": 230, "il": 231, "lu": 232, "ando": 233, "ia": 234, "gem": 235, "tem": 236, "lha": 237, "das": 238, "anima": 239, "comp": 240, "ck": 241, "não": 242, "vo": 243, "tic": 244, "tex": 245, "AR": 246, "KH": 247, "ARKH": 248, "ARKHER": 249, "ser": 250, "pre": 251, "pi": 252, "pas": 253, "ça": 254, "Rob": 255, "fe": 256, "game": 257, "cor": 258, "ina": 259, "lox": 260, "jogos": 261, "Roblox": 262, "ente": 263, "ntes": 264, "ári": 265, "có": 266, "op": 267, "ad": 268, "car": 269, "ch": 270, "ho": 271, "cont": 272, "tado": 273, "códi": 274, "ntos": 275, "der": 276, "plus": 277, "forma": 278, "código": 279, "nas": 280, "idade": 281, "nci": 282, "fica": 283, "bi": 284, "tr": 285, "na": 286, "eng": 287, "and": 288, "ona": 289, "animação": 290, "hat": 291, "sem": 292, "cu": 293, "tor": 294, "sa": 295, "int": 296, "ao": 297, "sta": 298, "tre": 299, "el": 300, "sis": 301, "rame": 302, "pol": 303, "sim": 304, "obje": 305, "vel": 306, "jogado": 307, "tran": 308, "ON": 309, "fer": 310, "su": 311, "fí": 312, "sica": 313, "im": 314, "ici": 315, "dor": 316, "quando": 317, "qui": 318, "malha": 319, "Como": 320, "como": 321, "QU": 322, "TI": 323, "What": 324, "AN": 325, "SW": 326, "QUES": 327, "TION": 328, "ANSW": 329, "QUESTION": 330, "ANSWER": 331, "ênci": 332, "ne": 333, "ju": 334, "line": 335, "pla": 336, "mes": 337, "che": 338, "cal": 339, "cli": 340, "ix": 341, "ase": 342, "back": 343, "vimento": 344, "guar": 345, "mode": 346, "porta": 347, "servi": 348, "crip": 349, "siste": 350, "tempo": 351, "it": 352, "pr": 353, "ir": 354, "gar": 355, "va": 356, "les": 357, "mer": 358, "ria": 359, "conte": 360, "dio": 361, "nta": 362, "rar": 363, "produ": 364, "ário": 365, "inter": 366, "engine": 367, "cliente": 368, "contro": 369, "guarda": 370, "servidor": 371, "12": 372, "proje": 373, "inte": 374, "fici": 375, "Ela": 376, "be": 377, "só": 378, "vali": 379, "pu": 380, "It": 381, "ac": 382, "ps": 383, "bu": 384, "Cada": 385, "Re": 386, "ição": 387, "fun": 388, "sona": 389, "sos": 390, "dra": 391, "tam": 392, "mas": 393, "velo": 394, "movimento": 395, "mater": 396, "real": 397, "estado": 398, "textura": 399, "persona": 400, "entra": 401, "ência": 402, "objetos": 403, "10": 404, "au": 405, "bra": 406, "cis": 407, "has": 408, "mó": 409, "pri": 410, "the": 411, "gen": 412, "ys": 413, "3D": 414, "íg": 415, "pes": 416, "cos": 417, "ol": 418, "AA": 419, "ble": 420, "antes": 421, "ed": 422, "fin": 423, "est": 424, "loop": 425, "zação": 426, "memó": 427, "vent": 428, "ild": 429, "map": 430, "quad": 431, "cidade": 432, "roda": 433, "ice": 434, "precis": 435, "desen": 436, "entes": 437, "entre": 438, "draw": 439, "cripts": 440, "velocidade": 441, "jogador": 442, "11": 443, "ita": 444, "bo": 445, "údo": 446, "ces": 447, "cl": 448, "eta": 449, "UV": 450, "gan": 451, "har": 452, "vis": 453, "ke": 454, "jus": 455, "sha": 456, "zar": 457, "Tes": 458, "mun": 459, "nú": 460, "física": 461, "ogia": 462, "tion": 463, "code": 464, "build": 465, "pipe": 466, "sion": 467, "ígon": 468, "mal": 469, "cada": 470, "ração": 471, "regra": 472, "iais": 473, "time": 474, "polígon": 475, "posição": 476, "versão": 477, "memória": 478, "trans": 479, "conteúdo": 480, "materiais": 481, "polígonos": 482, "gera": 483, "iza": 484, "dr": 485, "nun": 486, "vos": 487, "cus": 488, "bre": 489, "cle": 490, "th": 491, "gn": 492, "nor": 493, "frame": 494, "tro": 495, "val": 496, "âme": 497, "fi": 498, "evi": 499, "rá": 500, "itos": 501, "cul": 502, "ros": 503, "bal": 504, "padr": 505, "esta": 506, "arqui": 507, "difer": 508, "bili": 509, "isso": 510, "tru": 511, "esti": 512, "insta": 513, "sign": 514, "topol": 515, "UVs": 516, "mapas": 517, "ular": 518, "tal": 519, "som": 520, "Com": 521, "madas": 522, "plica": 523, "leto": 524, "ossos": 525, "peque": 526, "timi": 527, "lação": 528, "asse": 529, "veis": 530, "númer": 531, "nunca": 532, "teste": 533, "entidade": 534, "pare": 535, "adap": 536, "comun": 537, "tical": 538, "carre": 539, "play": 540, "progra": 541, "ficial": 542, "padrão": 543, "bilidade": 544, "valida": 545, "modelo": 546, "compon": 547, "pipeline": 548, "topologia": 549, "precisa": 550, "personagem": 551, "13": 552, "fo": 553, "\n\n\n": 554, "projeto": 555, "AI": 556, "base": 557, "uário": 558, "iro": 559, "ace": 560, "cla": 561, "Um": 562, "ifica": 563, "plo": 564, "sen": 565, "ph": 566, "ito": 567, "ato": 568, "As": 569, "ming": 570, "Mo": 571, "equi": 572, "ote": 573, "Ser": 574, "gres": 575, "ata": 576, "lis": 577, "at": 578, "ível": 579, "lon": 580, "mu": 581, "cas": 582, "PB": 583, "pres": 584, "íveis": 585, "ável": 586, "eco": 587, "ira": 588, "lta": 589, "onde": 590, "usuário": 591, "dire": 592, "sibilidade": 593, "ntas": 594, "mentos": 595, "exi": 596, "inpu": 597, "ren": 598, "sobre": 599, "prin": 600, "ten": 601, "invent": 602, "importa": 603, "ics": 604, "design": 605, "leta": 606, "depo": 607, "ture": 608, "faz": 609, "luz": 610, "camadas": 611, "faci": 612, "ores": 613, "esque": 614, "cula": 615, "usa": 616, "dados": 617, "quali": 618, "bara": 619, "PBR": 620, "quer": 621, "arte": 622, "nti": 623, "til": 624, "man": 625, "aming": 626, "ance": 627, "move": 628, "delta": 629, "posta": 630, "funci": 631, "comb": 632, "targe": 633, "calcula": 634, "confi": 635, "gens": 636, "mesmo": 637, "shader": 638, "vertical": 639, "cria": 640, "gran": 641, "econo": 642, "treaming": 643, "mundo": 644, "Teste": 645, "input": 646, "depois": 647, "transi": 648, "adapta": 649, "estados": 650, "esqueleto": 651, "sistema": 652, "regras": 653, "qualidade": 654, "jogadores": 655, "controles": 656, "program": 657, "17": 658, "16": 659, "30": 660, "sua": 661, "ações": 662, "hi": 663, "Uma": 664, "aju": 665, "scripts": 666, "lin": 667, "var": 668, "cer": 669, "of": 670, "lan": 671, "gua": 672, "log": 673, "ction": 674, "king": 675, "ging": 676, "las": 677, "bem": 678, "xel": 679, "ele": 680, "ual": 681, "gh": 682, "itura": 683, "fina": 684, "pé": 685, "ru": 686, "ajus": 687, "Em": 688, "çar": 689, "má": 690, "Scripts": 691, "Rem": 692, "amento": 693, "fal": 694, "lback": 695, "otimi": 696, "Pa": 697, "ucos": 698, "câme": 699, "grá": 700, "zir": 701, "min": 702, "ly": 703, "cre": 704, "gos": 705, "ial": 706, "tó": 707, "pli": 708, "té": 709, "fil": 710, "gas": 711, "tis": 712, "imi": 713, "edi": 714, "35": 715, "15": 716, "end": 717, "autor": 718, "usada": 719, "vol": 720, "tros": 721, "explo": 722, "online": 723, "are": 724, "ers": 725, "chan": 726, "lagem": 727, "organ": 728, "ane": 729, "vira": 730, "mapa": 731, "liga": 732, "super": 733, "fíci": 734, "paco": 735, "detal": 736, "ples": 737, "icos": 738, "leitura": 739, "dois": 740, "limi": 741, "icar": 742, "feed": 743, "mobi": 744, "Para": 745, "poucos": 746, "pela": 747, "repe": 748, "ulti": 749, "rea": 750, "qual": 751, "feitos": 752, "medi": 753, "auto": 754, "mati": 755, "zados": 756, "alo": 757, "mant": 758, "ixa": 759, "umina": 760, "usam": 761, "vida": 762, "data": 763, "face": 764, "tivo": 765, "comporta": 766, "resp": 767, "clara": 768, "resul": 769, "cons": 770, "exigem": 771, "ajuda": 772, "criar": 773, "trapa": 774, "normal": 775, "simples": 776, "visual": 777, "corri": 778, "icação": 779, "Remote": 780, "progres": 781, "call": 782, "gráfica": 783, "final": 784, "testes": 785, "texto": 786, "passo": 787, "completa": 788, "feedback": 789, "mobile": 790, "câmera": 791, "qualquer": 792, "quadro": 793, "grandes": 794, "formas": 795, "superfíci": 796, "detalhe": 797, "funciona": 798, "interpo": 799, "configu": 800, "transpar": 801, "desenha": 802, "entrada": 803, "uminação": 804, "interface": 805, "component": 806, "texturas": 807, "comportamento": 808, "14": 809, "54": 810, "31": 811, "27": 812, "29": 813, "20": 814, "43": 815, "24": 816, "fontes": 817, "ecu": 818, "oficial": 819, "fra": 820, "ês": 821, "pó": 822, "ação": 823, "Ações": 824, "vas": 825, "pal": 826, "ças": 827, "its": 828, "The": 829, "ct": 830, "ling": 831, "ab": 832, "gging": 833, "lh": 834, "bri": 835, "olu": 836, "ás": 837, "dar": 838, "mã": 839, "zen": 840, "nu": 841, "apo": 842, "Lua": 843, "lho": 844, "Event": 845, "Es": 846, "ló": 847, "gica": 848, "Sto": 849, "Pla": 850, "Ma": 851, "vê": 852, "bli": 853, "fre": 854, "LO": 855, "apar": 856, "tâ": 857, "multi": 858, "água": 859, "xo": 860, "Tex": 861, "mor": 862, "vé": 863, "rtic": 864, "sor": 865, "nce": 866, "De": 867, "sl": 868, "tência": 869, "tí": 870, "ze": 871, "imedi": 872, "tcode": 873, "cn": 874, "ula": 875, "Ver": 876, "fase": 877, "cali": 878, "Is": 879, "ave": 880, "tmap": 881, "Par": 882, "udio": 883, "eve": 884, "Tra": 885, "efici": 886, "Streaming": 887, "Ena": 888, "Stu": 889, "UI": 890, "ler": 891, "eix": 892, "ycas": 893, "his": 894, "19": 895, "48": 896, "pró": 897, "def": 898, "algo": 899, "hipó": 900, "reg": 901, "ines": 902, "deri": 903, "outros": 904, "tec": 905, "lado": 906, "phys": 907, "tech": 908, "ref": 909, "retopologia": 910, "baking": 911, "turi": 912, "leve": 913, "alta": 914, "cur": 915, "pixel": 916, "clás": 917, "timing": 918, "AAA": 919, "cap": 920, "cedu": 921, "pés": 922, "mãos": 923, "chão": 924, "tudo": 925, "máqu": 926, "emp": 927, "lógica": 928, "Modu": 929, "leScripts": 930, "envi": 931, "toda": 932, "cedo": 933, "reten": 934, "tela": 935, "LOD": 936, "elho": 937, "dem": 938, "Redu": 939, "inar": 940, "icas": 941, "escul": 942, "vértic": 943, "one": 944, "Defina": 945, "slice": 946, "tícul": 947, "toque": 948, "tóti": 949, "demais": 950, "técn": 951, "luta": 952, "gara": 953, "reprodu": 954, "mede": 955, "Isso": 956, "artis": 957, "seed": 958, "iluminação": 959, "ghtmap": 960, "taman": 961, "lugar": 962, "itbo": 963, "deci": 964, "Come": 965, "opções": 966, "pack": 967, "ere": 968, "inimi": 969, "diver": 970, "kee": 971, "tese": 972, "estão": 973, "verifica": 974, "ferrame": 975, "aliza": 976, "engines": 977, "enti": 978, "resposta": 979, "truir": 980, "resolu": 981, "bras": 982, "nasce": 983, "procedu": 984, "poses": 985, "compar": 986, "evita": 987, "chega": 988, "ganha": 989, "placa": 990, "acele": 991, "protóti": 992, "plifica": 993, "valores": 994, "poss": 995, "jogável": 996, "confor": 997, "está": 998, "hard": 999, "terre": 1000, "longo": 1001, "verdraw": 1002, "lisão": 1003, "Serve": 1004, "very": 1005, "prime": 1006, "Enable": 1007, "Studio": 1008, "backend": 1009, "responde": 1010, "hipótese": 1011, "loops": 1012, "princi": 1013, "parecer": 1014, "modelagem": 1015, "combina": 1016, "máquina": 1017, "parado": 1018, "cript": 1019, "rodam": 1020, "ModuleScripts": 1021, "objeto": 1022, "barata": 1023, "assets": 1024, "equipe": 1025, "automati": 1026, "asset": 1027, "itbox": 1028, "quadros": 1029, "player": 1030, "facili": 1031, "ycast": 1032, "produto": 1033, "arquivos": 1034, "exploits": 1035, "arquivo": 1036, "organiza": 1037, "diferentes": 1038, "comunicação": 1039, "Events": 1040, "retenção": 1041, "tículas": 1042, "builds": 1043, "economi": 1044, "sistemas": 1045, "tamanho": 1046, "números": 1047, "carregar": 1048, "pequeno": 1049, "número": 1050, "resolução": 1051, "transições": 1052, "RemoteEvents": 1053, "inventário": 1054, "conforme": 1055, "Enabled": 1056, "procedura": 1057, "progresso": 1058, "interpolação": 1059, "personagens": 1060, "configura": 1061, "programmer": 1062, "automatizados": 1063, "StreamingEnabled": 1064, "33": 1065, "46": 1066, "68": 1067, "23": 1068, "25": 1069, "40": 1070, "18": 1071, "51": 1072, "81": 1073, "28": 1074, "37": 1075, "21": 1076, "44": 1077, "Fa": 1078, "97": 1079, "80": 1080, "41": 1081, "26": 1082, "34": 1083, "pelo": 1084, "ide": 1085, "gência": 1086, "idio": 1087, "hon": 1088, "Qu": 1089, "ela": 1090, "gestão": 1091, "itar": 1092, "aconte": 1093, "Fer": 1094, "bé": 1095, "dica": 1096, "mos": 1097, "ile": 1098, "nem": 1099, "cen": 1100, "sári": 1101, "sal": 1102, "Se": 1103, "kno": 1104, "cts": 1105, "spe": 1106, "ats": 1107, "éis": 1108, "gun": 1109, "2D": 1110, "Il": 1111, "bor": 1112, "cí": 1113, "Os": 1114, "An": 1115, "âne": 1116, "blo": 1117, "Ri": 1118, "ator": 1119, "aplica": 1120, "tmo": 1121, "ting": 1122, "nd": 1123, "mis": 1124, "rer": 1125, "ínu": 1126, "pular": 1127, "script": 1128, "vice": 1129, "vam": 1130, "Data": 1131, "Use": 1132, "bl": 1133, "lular": 1134, "acomp": 1135, "dis": 1136, "Me": 1137, "sões": 1138, "Mu": 1139, "nc": 1140, "vári": 1141, "Sha": 1142, "apro": 1143, "xima": 1144, "edade": 1145, "atu": 1146, "jar": 1147, "ueta": 1148, "Con": 1149, "Ga": 1150, "ag": 1151, "Ju": 1152, "efeitos": 1153, "cro": 1154, "llback": 1155, "Jog": 1156, "Ex": 1157, "útil": 1158, "cem": 1159, "Pro": 1160, "PU": 1161, "galo": 1162, "Otimi": 1163, "streaming": 1164, "ware": 1165, "era": 1166, "fas": 1167, "fixa": 1168, "lla": 1169, "pse": 1170, "níveis": 1171, "glo": 1172, "ves": 1173, "son": 1174, "din": 1175, "âm": 1176, "Li": 1177, "ço": 1178, "sys": 1179, "overdraw": 1180, "Ele": 1181, "kin": 1182, "ll": 1183, "hitbox": 1184, "Bal": 1185, "Lo": 1186, "áudio": 1187, "str": 1188, "Aces": 1189, "my": 1190, "D1": 1191, "ses": 1192, "apre": 1193, "nder": 1194, "mine": 1195, "tri": 1196, "ool": 1197, "No": 1198, "Do": 1199, "Bo": 1200, "mú": 1201, "xa": 1202, "êm": 1203, "jé": 1204, "Fí": 1205, "BB": 1206, "zer": 1207, "álog": 1208, "Le": 1209, "every": 1210, "smal": 1211, "wit": 1212, "ges": 1213, "95": 1214, "83": 1215, "58": 1216, "70": 1217, "47": 1218, "92": 1219, "42": 1220, "32": 1221, "22": 1222, "ligência": 1223, "arti": 1224, "execu": 1225, "tada": 1226, "seu": 1227, "sabe": 1228, "diz": 1229, "tou": 1230, "enci": 1231, "fato": 1232, "sugestão": 1233, "pode": 1234, "dou": 1235, "tivas": 1236, "expl": 1237, "boas": 1238, "bém": 1239, "inje": 1240, "taformas": 1241, "neces": 1242, "expor": 1243, "clare": 1244, "not": 1245, "some": 1246, "action": 1247, "ment": 1248, "ties": 1249, "games": 1250, "mechan": 1251, "bug": 1252, "uses": 1253, "ceito": 1254, "rigging": 1255, "exporta": 1256, "deforma": 1257, "lim": 1258, "rele": 1259, "ambi": 1260, "Assim": 1261, "ras": 1262, "moder": 1263, "cípi": 1264, "Anima": 1265, "ntâne": 1266, "artes": 1267, "anal": 1268, "dezen": 1269, "liz": 1270, "ritmo": 1271, "outro": 1272, "mape": 1273, "inver": 1274, "alc": 1275, "alvo": 1276, "olve": 1277, "dição": 1278, "uagem": 1279, "cion": 1280, "enho": 1281, "melho": 1282, "eles": 1283, "tilha": 1284, "Mant": 1285, "enha": 1286, "men": 1287, "inda": 1288, "save": 1289, "publ": 1290, "celular": 1291, "çamento": 1292, "feito": 1293, "use": 1294, "faça": 1295, "Meça": 1296, "tânci": 1297, "cebe": 1298, "rate": 1299, "ncing": 1300, "tidos": 1301, "sico": 1302, "quase": 1303, "albe": 1304, "metal": 1305, "rugos": 1306, "iso": 1307, "plane": 1308, "indi": 1309, "volu": 1310, "silh": 1311, "Faça": 1312, "feel": 1313, "Game": 1314, "mera": 1315, "impa": 1316, "Juice": 1317, "netcode": 1318, "junto": 1319, "rollback": 1320, "esco": 1321, "tiro": 1322, "detec": 1323, "imposs": 1324, "ass": 1325, "head": 1326, "assim": 1327, "rápi": 1328, "baix": 1329, "redu": 1330, "depu": 1331, "colla": 1332, "tir": 1333, "come": 1334, "bate": 1335, "lightmap": 1336, "ned": 1337, "segu": 1338, "juntas": 1339, "ixas": 1340, "doll": 1341, "acer": 1342, "tivos": 1343, "caixa": 1344, "gol": 1345, "ops": 1346, "talha": 1347, "recur": 1348, "core": 1349, "defin": 1350, "tenti": 1351, "ntar": 1352, "diversão": 1353, "retor": 1354, "rain": 1355, "telas": 1356, "música": 1357, "mover": 1358, "Física": 1359, "colisão": 1360, "AABB": 1361, "menor": 1362, "tile": 1363, "raycast": 1364, "tocar": 1365, "tido": 1366, "diálog": 1367, "vamentos": 1368, "level": 1369, "frase": 1370, "define": 1371, "possibilidade": 1372, "verdade": 1373, "Ferrame": 1374, "regis": 1375, "volvimento": 1376, "renderi": 1377, "também": 1378, "porque": 1379, "clear": 1380, "know": 1381, "render": 1382, "clean": 1383, "etapas": 1384, "conceito": 1385, "texturi": 1386, "etapa": 1387, "version": 1388, "caro": 1389, "brir": 1390, "cortar": 1391, "fere": 1392, "sombras": 1393, "pose": 1394, "propor": 1395, "tree": 1396, "mistura": 1397, "corte": 1398, "andar": 1399, "correr": 1400, "resolve": 1401, "state": 1402, "Luau": 1403, "desemp": 1404, "Play": 1405, "prevê": 1406, "Store": 1407, "perder": 1408, "lançamento": 1409, "troca": 1410, "longe": 1411, "grade": 1412, "custam": 1413, "Shader": 1414, "descre": 1415, "check": 1416, "pesos": 1417, "resto": 1418, "sistência": 1419, "partículas": 1420, "conjunto": 1421, "justo": 1422, "cheat": 1423, "custo": 1424, "less": 1425, "linha": 1426, "Testes": 1427, "gração": 1428, "filing": 1429, "aloca": 1430, "gargalo": 1431, "aponta": 1432, "mundos": 1433, "quem": 1434, "visão": 1435, "fases": 1436, "function": 1437, "global": 1438, "suaves": 1439, "dinâm": 1440, "ticle": 1441, "system": 1442, "elementos": 1443, "kinned": 1444, "mesh": 1445, "evitam": 1446, "simplifica": 1447, "consiste": 1448, "Balance": 1449, "balance": 1450, "string": 1451, "iras": 1452, "eventos": 1453, "voltam": 1454, "props": 1455, "vale": 1456, "prontos": 1457, "editor": 1458, "partes": 1459, "terrain": 1460, "permi": 1461, "Tran": 1462, "desde": 1463, "eixos": 1464, "Version": 1465, "lerp": 1466, "zero": 1467, "reais": 1468, "fala": 1469, "travamentos": 1470, "with": 1471, "keeps": 1472, "inteligência": 1473, "artificial": 1474, "sária": 1475, "physics": 1476, "construir": 1477, "contato": 1478, "direção": 1479, "turas": 1480, "princípi": 1481, "facial": 1482, "ajustar": 1483, "contínu": 1484, "linguagem": 1485, "cional": 1486, "Mantenha": 1487, "DataStore": 1488, "calls": 1489, "ências": 1490, "aparelho": 1491, "geram": 1492, "Reduzir": 1493, "várias": 1494, "repetidos": 1495, "clássico": 1496, "aproxima": 1497, "albedo": 1498, "pressão": 1499, "indie": 1500, "estilo": 1501, "volume": 1502, "silhueta": 1503, "impac": 1504, "headless": 1505, "garante": 1506, "pacote": 1507, "reduz": 1508, "hardware": 1509, "depurar": 1510, "inteiro": 1511, "calização": 1512, "Acessibilidade": 1513, "aprender": 1514, "Comece": 1515, "gameplay": 1516, "tadores": 1517, "valide": 1518, "ficam": 1519, "ligam": 1520, "manter": 1521, "decide": 1522, "pression": 1523, "small": 1524, "autoriza": 1525, "diferenci": 1526, "usadas": 1527, "desenvolvimento": 1528, "trapaças": 1529, "necessária": 1530, "exportar": 1531, "clareza": 1532, "Animação": 1533, "instantâne": 1534, "artesanal": 1535, "corrige": 1536, "dezenas": 1537, "targeting": 1538, "animações": 1539, "resultado": 1540, "melhora": 1541, "trapaça": 1542, "acompan": 1543, "pequenas": 1544, "otimização": 1545, "sobreposta": 1546, "tância": 1547, "multiplica": 1548, "rugosidade": 1549, "material": 1550, "escultura": 1551, "targets": 1552, "planejar": 1553, "produzir": 1554, "imediato": 1555, "carrega": 1556, "artist": 1557, "transforma": 1558, "collapse": 1559, "economy": 1560, "recursos": 1561, "tention": 1562, "acelera": 1563, "eficientes": 1564, "retorna": 1565, "terreno": 1566, "primeiro": 1567, "entram": 1568, "inimigos": 1569, "divertido": 1570, "projetos": 1571, "controle": 1572, "acontece": 1573, "principal": 1574, "rendering": 1575, "transição": 1576, "desempenho": 1577, "compartilha": 1578, "descreve": 1579, "impossíveis": 1580, "vértice": 1581, "strings": 1582, "adaptativo": 1583, "componente": 1584, "facilita": 1585, "diálogo": 1586, "control": 1587, "renderização": 1588, "exportação": 1589, "protótipo": 1590, "reproduz": 1591, "economia": 1592, "ferramentas": 1593, "programming": 1594, "entidades": 1595, "princípios": 1596, "transparências": 1597, "components": 1598, "superfície": 1599, "procedural": 1600, "superfícies": 1601, "configurações": 1602, "sobrepostas": 1603, "45": 1604, "77": 1605, "89": 1606, "59": 1607, "50": 1608, "75": 1609, "93": 1610, "96": 1611, "87": 1612, "65": 1613, "56": 1614, "36": 1615, "91": 1616, "72": 1617, "76": 1618, "55": 1619, "66": 1620, "86": 1621, "57": 1622, "98": 1623, "84": 1624, "82": 1625, "99": 1626, "52": 1627, "94": 1628, "69": 1629, "64": 1630, "60": 1631, "63": 1632, "62": 1633, "39": 1634, "\n\n\n\n": 1635, "74": 1636, "61": 1637, "ticos": 1638, "mé": 1639, "38": 1640, "49": 1641, "exter": 1642, "externas": 1643, "pria": 1644, "xto": 1645, "lês": 1646, "lici": 1647, "fir": 1648, "íci": 1649, "bá": 1650, "átic": 1651, "logia": 1652, "ola": 1653, "gal": 1654, "Fo": 1655, "sas": 1656, "vre": 1657, "bus": 1658, "apa": 1659, "ken": 1660, "gre": 1661, "Hon": 1662, "ow": 1663, "lli": 1664, "run": 1665, "sw": 1666, "Wh": 1667, "ur": 1668, "zes": 1669, "pment": 1670, "bas": 1671, "hand": 1672, "pra": 1673, "ctic": 1674, "Its": 1675, "nic": 1676, "lps": 1677, "Pular": 1678, "cane": 1679, "lhar": 1680, "Abrir": 1681, "çam": 1682, "Ba": 1683, "oc": 1684, "ion": 1685, "nh": 1686, "uras": 1687, "fus": 1688, "sicos": 1689, "clu": 1690, "squ": 1691, "stre": 1692, "tch": 1693, "ante": 1694, "fol": 1695, "ugh": 1696, "cs": 1697, "fis": 1698, "yframe": 1699, "sores": 1700, "ví": 1701, "gita": 1702, "bru": 1703, "gir": 1704, "brar": 1705, "Ble": 1706, "kine": 1707, "Cin": 1708, "át": 1709, "IK": 1710, "iar": 1711, "mão": 1712, "vada": 1713, "Fun": 1714, "Script": 1715, "dSto": 1716, "Star": 1717, "senti": 1718, "vinda": 1719, "yU": 1720, "Sa": 1721, "ições": 1722, "bel": 1723, "ializa": 1724, "Pu": 1725, "iter": 1726, "ícon": 1727, "bna": 1728, "vul": 1729, "ális": 1730, "Atu": 1731, "bine": 1732, "nível": 1733, "Per": 1734, "agrade": 1735, "Dra": 1736, "cha": 1737, "ui": 1738, "In": 1739, "Gra": 1740, "stância": 1741, "ulação": 1742, "sicas": 1743, "dú": 1744, "st": 1745, "tível": 1746, "Mor": 1747, "riso": 1748, "fone": 1749, "oção": 1750, "eze": 1751, "Pe": 1752, "pis": 1753, "gível": 1754, "ído": 1755, "Ne": 1756, "Rol": 1757, "sário": 1758, "sente": 1759, "anti": 1760, "Anti": 1761, "vesti": 1762, "jane": 1763, "Au": 1764, "Bu": 1765, "ila": 1766, "apare": 1767, "smo": 1768, "abre": 1769, "CPU": 1770, "GPU": 1771, "uição": 1772, "pma": 1773, "Ge": 1774, "eator": 1775, "iedade": 1776, "dun": 1777, "wave": 1778, "Wave": 1779, "jac": 1780, "cé": 1781, "vá": 1782, "Gera": 1783, "Cus": 1784, "Cen": 1785, "ite": 1786, "fog": 1787, "fuma": 1788, "eira": 1789, "gia": 1790, "ricos": 1791, "Overdraw": 1792, "lrate": 1793, "skinned": 1794, "Skinned": 1795, "Pes": 1796, "Ph": 1797, "cá": 1798, "gdoll": 1799, "Rag": 1800, "Limi": 1801, "Hitbox": 1802, "Frame": 1803, "star": 1804, "ativos": 1805, "av": 1806, "nisso": 1807, "iores": 1808, "bar": 1809, "lto": 1810, "nis": 1811, "fic": 1812, "tável": 1813, "pú": 1814, "ope": 1815, "zô": 1816, "nicos": 1817, "Da": 1818, "iam": 1819, "Tor": 1820, "flação": 1821, "fr": 1822, "Sim": 1823, "ule": 1824, "antos": 1825, "D7": 1826, "D30": 1827, "Melho": 1828, "fim": 1829, "tf": 1830, "óli": 1831, "cin": 1832, "zing": 1833, "los": 1834, "Us": 1835, "aus": 1836, "Tool": 1837, "údi": 1838, "ré": 1839, "Fil": 1840, "ião": 1841, "áveis": 1842, "ainda": 1843, "uti": 1844, "Eles": 1845, "ços": 1846, "num": 1847, "flu": 1848, "AP": 1849, "gere": 1850, "Men": 1851, "So": 1852, "Áudio": 1853, "sin": 1854, "niza": 1855, "cres": 1856, "lhas": 1857, "cic": 1858, "centra": 1859, "ant": 1860, "ior": 1861, "Del": 1862, "Multi": 1863, "ficar": 1864, "igu": 1865, "utadores": 1866, "item": 1867, "êin": 1868, "sforma": 1869, "Spri": 1870, "erar": 1871, "ríg": 1872, "idas": 1873, "aos": 1874, "ng": 1875, "põ": 1876, "cando": 1877, "xi": 1878, "izar": 1879, "git": 1880, "Tile": 1881, "Ra": 1882, "io": 1883, "ofere": 1884, "Ler": 1885, "tão": 1886, "ativo": 1887, "nes": 1888, "ja": 1889, "Ao": 1890, "gmento": 1891, "Efeitos": 1892, "Im": 1893, "Dan": 1894, "Save": 1895, "vado": 1896, "JS": 1897, "Vali": 1898, "nó": 1899, "Pon": 1900, "Ter": 1901, "lões": 1902, "Pool": 1903, "numa": 1904, "oci": 1905, "cy": 1906, "ste": 1907, "up": 1908, "wor": 1909, "ld": 1910, "scre": 1911, "job": 1912, "Enti": 1913, "This": 1914, "avo": 1915, "id": 1916, "ep": 1917, "her": 1918, "cra": 1919, "ft": 1920, "spa": 1921, "that": 1922, "ach": 1923, "nge": 1924, "war": 1925, "Go": 1926, "od": 1927, "ear": 1928, "wat": 1929, "wh": 1930, "stu": 1931, "Ar": 1932, "binar": 1933, "ef": 1934, "fro": 1935, "Gere": 1936, "têm": 1937, "Cor": 1938, "dó": 1939, "gi": 1940, "nado": 1941, "ico": 1942, "nada": 1943, "Ano": 1944, "79": 1945, "73": 1946, "85": 1947, "88": 1948, "67": 1949, "ntidade": 1950, "ende": 1951, "tugu": 1952, "sile": 1953, "solici": 1954, "Quando": 1955, "inve": 1956, "fatos": 1957, "tados": 1958, "recus": 1959, "ultou": 1960, "net": 1961, "rodou": 1962, "leu": 1963, "argu": 1964, "mação": 1965, "espe": 1966, "cializa": 1967, "hece": 1968, "básica": 1969, "prátic": 1970, "assu": 1971, "foco": 1972, "nologia": 1973, "dev": 1974, "judica": 1975, "viola": 1976, "adul": 1977, "Fora": 1978, "livre": 1979, "sura": 1980, "rias": 1981, "token": 1982, "segre": 1983, "inado": 1984, "informa": 1985, "own": 1986, "official": 1987, "answ": 1988, "user": 1989, "When": 1990, "does": 1991, "thing": 1992, "says": 1993, "never": 1994, "facts": 1995, "sour": 1996, "did": 1997, "ciali": 1998, "develo": 1999, "main": 2000, "nolog": 2001, "helps": 2002, "users": 2003, "debug": 2004, "plan": 2005, "aber": 2006, "cobra": 2007, "Retopologia": 2008, "reconstruir": 2009, "anéis": 2010, "escane": 2011, "milh": 2012, "algun": 2013, "milhar": 2014, "ilhas": 2015, "achat": 2016, "estic": 2017, "Ilhas": 2018, "empaco": 2019, "tadas": 2020, "diçam": 2021, "Baking": 2022, "occl": 2023, "usion": 2024, "vature": 2025, "ana": 2026, "ranh": 2027, "extra": 2028, "inclu": 2029, "ash": 2030, "cipa": 2031, "low": 2032, "thro": 2033, "arcs": 2034, "secon": 2035, "deles": 2036, "keyframe": 2037, "pais": 2038, "refina": 2039, "teci": 2040, "Rig": 2041, "leva": 2042, "Mocap": 2043, "víde": 2044, "digita": 2045, "dado": 2046, "peza": 2047, "ril": 2048, "natura": 2049, "matic": 2050, "emát": 2051, "rota": 2052, "ançar": 2053, "degra": 2054, "mirar": 2055, "cabe": 2056, "mach": 2057, "duração": 2058, "coração": 2059, "tipa": 2060, "opcional": 2061, "estru": 2062, "Estru": 2063, "Replica": 2064, "tedSto": 2065, "rage": 2066, "levam": 2067, "sagens": 2068, "arma": 2069, "Retr": 2070, "yUnt": 2071, "ilSa": 2072, "lidar": 2073, "requ": 2074, "isições": 2075, "tabel": 2076, "erro": 2077, "Publi": 2078, "thum": 2079, "divul": 2080, "anális": 2081, "onda": 2082, "supe": 2083, "ram": 2084, "mire": 2085, "atlas": 2086, "tantes": 2087, "ordem": 2088, "Muitos": 2089, "muita": 2090, "dimin": 2091, "Insta": 2092, "pedra": 2093, "instância": 2094, "ondas": 2095, "lexo": 2096, "didade": 2097, "ical": 2098, "físicas": 2099, "icidade": 2100, "indú": 2101, "stria": 2102, "recebe": 2103, "riga": 2104, "clar": 2105, "patível": 2106, "muito": 2107, "expressão": 2108, "sobra": 2109, "emoção": 2110, "siga": 2111, "vence": 2112, "camera": 2113, "Peque": 2114, "exag": 2115, "eros": 2116, "separa": 2117, "juice": 2118, "amplifica": 2119, "cole": 2120, "bater": 2121, "cante": 2122, "legível": 2123, "ruído": 2124, "Netcode": 2125, "recon": 2126, "cili": 2127, "latência": 2128, "abor": 2129, "dagens": 2130, "adver": 2131, "ouro": 2132, "tege": 2133, "esas": 2134, "fati": 2135, "poli": 2136, "investi": 2137, "Execu": 2138, "dedica": 2139, "coman": 2140, "Auto": 2141, "Build": 2142, "camin": 2143, "máti": 2144, "numera": 2145, "soa": 2146, "regres": 2147, "dano": 2148, "unidade": 2149, "juntos": 2150, "essen": 2151, "cial": 2152, "deman": 2153, "endo": 2154, "mipma": 2155, "cebi": 2156, "Geração": 2157, "aleator": 2158, "lada": 2159, "geon": 2160, "adjac": 2161, "peças": 2162, "célu": 2163, "todas": 2164, "vai": 2165, "cola": 2166, "psando": 2167, "opção": 2168, "váli": 2169, "coer": 2170, "Iluminação": 2171, "rebate": 2172, "ista": 2173, "solu": 2174, "Lightmap": 2175, "pré": 2176, "emite": 2177, "poeira": 2178, "magia": 2179, "enche": 2180, "mente": 2181, "artic": 2182, "pinta": 2183, "dobras": 2184, "estran": 2185, "Phys": 2186, "caixas": 2187, "esfe": 2188, "cáps": 2189, "ulas": 2190, "Colisão": 2191, "ragdoll": 2192, "osso": 2193, "separado": 2194, "peti": 2195, "questão": 2196, "tiça": 2197, "deve": 2198, "tup": 2199, "reco": 2200, "avan": 2201, "çados": 2202, "localização": 2203, "Localização": 2204, "supor": 2205, "acent": 2206, "espa": 2207, "maiores": 2208, "tabe": 2209, "retra": 2210, "enor": 2211, "aces": 2212, "remove": 2213, "reiras": 2214, "remape": 2215, "dalto": 2216, "legen": 2217, "dific": 2218, "uldade": 2219, "ampli": 2220, "públi": 2221, "todo": 2222, "live": 2223, "Live": 2224, "sazô": 2225, "batalha": 2226, "Dados": 2227, "rece": 2228, "guiam": 2229, "libra": 2230, "neiras": 2231, "inflação": 2232, "tédio": 2233, "frus": 2234, "médio": 2235, "retention": 2236, "Retention": 2237, "quantos": 2238, "novos": 2239, "domine": 2240, "detalha": 2241, "letos": 2242, "até": 2243, "tfóli": 2244, "caba": 2245, "pintar": 2246, "iação": 2247, "sutil": 2248, "sob": 2249, "Asse": 2250, "uso": 2251, "Usar": 2252, "unifica": 2253, "rados": 2254, "habilidade": 2255, "colado": 2256, "tas": 2257, "suces": 2258, "tool": 2259, "impor": 2260, "dores": 2261, "boa": 2262, "tuma": 2263, "réplica": 2264, "Mapas": 2265, "viáveis": 2266, "tole": 2267, "reuti": 2268, "cache": 2269, "bibli": 2270, "Domin": 2271, "seus": 2272, "pain": 2273, "taforma": 2274, "mont": 2275, "anhas": 2276, "caver": 2277, "voxel": 2278, "API": 2279, "gerar": 2280, "Boa": 2281, "escal": 2282, "Som": 2283, "muda": 2284, "sições": 2285, "asso": 2286, "mixa": 2287, "oridade": 2288, "coes": 2289, "ilha": 2290, "faixas": 2291, "ensi": 2292, "rativas": 2293, "três": 2294, "decorri": 2295, "erior": 2296, "segun": 2297, "plicar": 2298, "lentos": 2299, "Exem": 2300, "jétil": 2301, "cois": 2302, "hierar": 2303, "reus": 2304, "delimi": 2305, "alin": 2306, "hada": 2307, "Dois": 2308, "retâ": 2309, "ngul": 2310, "coli": 2311, "põem": 2312, "esquer": 2313, "ximo": 2314, "Separe": 2315, "adici": 2316, "pedi": 2317, "tiles": 2318, "Raycast": 2319, "raio": 2320, "ponto": 2321, "cobrir": 2322, "Quase": 2323, "vizar": 2324, "gunta": 2325, "tecla": 2326, "botão": 2327, "seja": 2328, "momento": 2329, "exato": 2330, "vidade": 2331, "soma": 2332, "onam": 2333, "pontos": 2334, "uais": 2335, "daí": 2336, "Reprodu": 2337, "Impri": 2338, "vante": 2339, "gele": 2340, "mudou": 2341, "recar": 2342, "Mude": 2343, "JSON": 2344, "migração": 2345, "nós": 2346, "escri": 2347, "tória": 2348, "Esco": 2349, "tutor": 2350, "recri": 2351, "Leia": 2352, "docu": 2353, "menta": 2354, "tentar": 2355, "taxa": 2356, "vilões": 2357, "muitos": 2358, "cara": 2359, "pool": 2360, "veitar": 2361, "hora": 2362, "jéte": 2363, "fila": 2364, "osa": 2365, "coleta": 2366, "lixo": 2367, "cycle": 2368, "thre": 2369, "read": 2370, "upda": 2371, "acros": 2372, "rates": 2373, "like": 2374, "heal": 2375, "reusa": 2376, "ids": 2377, "deep": 2378, "inher": 2379, "Level": 2380, "teach": 2381, "chal": 2382, "lenge": 2383, "rewar": 2384, "Good": 2385, "rodu": 2386, "safe": 2387, "then": 2388, "where": 2389, "get": 2390, "team": 2391, "Artis": 2392, "mit": 2393, "sages": 2394, "Lock": 2395, "eful": 2396, "cible": 2397, "out": 2398, "emula": 2399, "Rigging": 2400, "esses": 2401, "Boas": 2402, "arcos": 2403, "Mode": 2404, "Escre": 2405, "núcle": 2406, "toti": 2407, "giga": 2408, "abando": 2409, "cura": 2410, "erros": 2411, "obser": 2412, "riem": 2413, "istem": 2414, "identidade": 2415, "própria": 2416, "entende": 2417, "portugu": 2418, "brasile": 2419, "aceita": 2420, "inglês": 2421, "honesta": 2422, "ideia": 2423, "aceitar": 2424, "destru": 2425, "confir": 2426, "ícita": 2427, "conhece": 2428, "tecnologia": 2429, "prejudica": 2430, "termos": 2431, "plataformas": 2432, "ilegal": 2433, "dessas": 2434, "linhas": 2435, "censura": 2436, "desnecessária": 2437, "perten": 2438, "salvar": 2439, "buscar": 2440, "apagar": 2441, "senhas": 2442, "própri": 2443, "treinado": 2444, "Honesti": 2445, "pronta": 2446, "lligen": 2447, "runs": 2448, "langua": 2449, "honest": 2450, "perfor": 2451, "speciali": 2452, "basics": 2453, "practic": 2454, "niche": 2455, "logic": 2456, "refuses": 2457, "cheats": 2458, "limpa": 2459, "desper": 2460, "curvature": 2461, "bordas": 2462, "pesado": 2463, "engana": 2464, "exibe": 2465, "fusos": 2466, "costuras": 2467, "Quais": 2468, "squash": 2469, "staging": 2470, "follow": 2471, "dary": 2472, "profis": 2473, "peso": 2474, "captura": 2475, "bloque": 2476, "capture": 2477, "grava": 2478, "sensores": 2479, "bruto": 2480, "sempre": 2481, "limpeza": 2482, "desliz": 2483, "valentes": 2484, "quebrar": 2485, "blend": 2486, "Blend": 2487, "parâme": 2488, "trocar": 2489, "Cinemát": 2490, "alcançar": 2491, "apoiar": 2492, "clipes": 2493, "condição": 2494, "Function": 2495, "Server": 2496, "Service": 2497, "terPlay": 2498, "mensagens": 2499, "zenamento": 2500, "persiste": 2501, "serializa": 2502, "trate": 2503, "fallback": 2504, "descri": 2505, "bnail": 2506, "Atualiza": 2507, "freque": 2508, "perfeito": 2509, "Combine": 2510, "evite": 2511, "distantes": 2512, "versões": 2513, "distância": 2514, "Perto": 2515, "percebe": 2516, "Draw": 2517, "chamadas": 2518, "malhas": 2519, "nciar": 2520, "Grama": 2521, "postes": 2522, "caso": 2523, "graça": 2524, "seno": 2525, "reflexo": 2526, "profun": 2527, "simulação": 2528, "refração": 2529, "propri": 2530, "reage": 2531, "Texturas": 2532, "atual": 2533, "passa": 2534, "compatível": 2535, "list": 2536, "morph": 2537, "Morph": 2538, "salvas": 2539, "rosto": 2540, "shapes": 2541, "sorriso": 2542, "ncelha": 2543, "consiga": 2544, "paleta": 2545, "fortes": 2546, "Consistência": 2547, "isolado": 2548, "sensor": 2549, "shake": 2550, "freeze": 2551, "fazem": 2552, "brilho": 2553, "tremor": 2554, "crocante": 2555, "pisar": 2556, "predição": 2557, "consistência": 2558, "Jogos": 2559, "Rollback": 2560, "simula": 2561, "frente": 2562, "protege": 2563, "assinar": 2564, "defesas": 2565, "Vertical": 2566, "prova": 2567, "assina": 2568, "pessoa": 2569, "jogar": 2570, "smoke": 2571, "tests": 2572, "confer": 2573, "profiling": 2574, "Profiling": 2575, "gasto": 2576, "perfil": 2577, "mostra": 2578, "intuição": 2579, "texture": 2580, "Texture": 2581, "perto": 2582, "percebi": 2583, "lines": 2584, "genera": 2585, "dungeon": 2586, "tilhar": 2587, "partir": 2588, "criando": 2589, "sondas": 2590, "Custa": 2591, "traz": 2592, "preço": 2593, "Cenári": 2594, "particle": 2595, "Particle": 2596, "simular": 2597, "fogo": 2598, "Parâme": 2599, "criam": 2600, "Partículas": 2601, "comum": 2602, "fillrate": 2603, "ulam": 2604, "Pesos": 2605, "dessa": 2606, "Ragdoll": 2607, "corpo": 2608, "mortes": 2609, "competi": 2610, "justiça": 2611, "golpe": 2612, "golpes": 2613, "Jogado": 2614, "textos": 2615, "balho": 2616, "barreiras": 2617, "nismo": 2618, "operar": 2619, "passe": 2620, "calend": 2621, "gastos": 2622, "Torneiras": 2623, "tração": 2624, "Simule": 2625, "sessão": 2626, "custa": 2627, "portfóli": 2628, "cinco": 2629, "finali": 2630, "trinta": 2631, "inacaba": 2632, "Texturi": 2633, "variação": 2634, "desgas": 2635, "certos": 2636, "sons": 2637, "Trabal": 2638, "ausência": 2639, "bugs": 2640, "costuma": 2641, "estúdi": 2642, "itativo": 2643, "Filtre": 2644, "região": 2645, "descarregar": 2646, "lizável": 2647, "funções": 2648, "perfeitos": 2649, "otecas": 2650, "fluxo": 2651, "plataforma": 2652, "alcance": 2653, "menus": 2654, "Menos": 2655, "combate": 2656, "persegu": 2657, "prioridade": 2658, "empilha": 2659, "sincro": 2660, "desligam": 2661, "intensi": 2662, "mesma": 2663, "chefe": 2664, "trilhas": 2665, "ciclo": 2666, "passos": 2667, "atuali": 2668, "consta": 2669, "anterior": 2670, "Delta": 2671, "igual": 2672, "posica": 2673, "projétil": 2674, "atacar": 2675, "êiner": 2676, "parte": 2677, "quias": 2678, "rígidas": 2679, "versa": 2680, "eixo": 2681, "corren": 2682, "atacando": 2683, "próximo": 2684, "blocos": 2685, "imagem": 2686, "editar": 2687, "lançar": 2688, "descobrir": 2689, "pronto": 2690, "Lerp": 2691, "suavizar": 2692, "pergunta": 2693, "neste": 2694, "borda": 2695, "evento": 2696, "gravidade": 2697, "Plataformas": 2698, "posici": 2699, "fragmento": 2700, "visuais": 2701, "nascem": 2702, "proble": 2703, "cena": 2704, "Congele": 2705, "Dano": 2706, "gravado": 2707, "tenha": 2708, "falas": 2709, "grafo": 2710, "tores": 2711, "editam": 2712, "história": 2713, "Pong": 2714, "travar": 2715, "Termine": 2716, "gastar": 2717, "reapro": 2718, "destruir": 2719, "Projéte": 2720, "ociosa": 2721, "steps": 2722, "world": 2723, "speed": 2724, "stays": 2725, "stable": 2726, "avoids": 2727, "itance": 2728, "trees": 2729, "craft": 2730, "spaces": 2731, "introdu": 2732, "vary": 2733, "test": 2734, "early": 2735, "watch": 2736, "stuck": 2737, "histor": 2738, "commit": 2739, "messages": 2740, "merge": 2741, "careful": 2742, "keep": 2743, "from": 2744, "fino": 2745, "prototi": 2746, "Corte": 2747, "termin": 2748, "procura": 2749, "Anote": 2750, "travam": 2751, "sorriem": 2752, "desistem": 2753, "idioma": 2754, "direta": 2755, "inventa": 2756, "consultou": 2757, "argumentos": 2758, "explícita": 2759, "especializa": 2760, "assuntos": 2761, "injeção": 2762, "adulto": 2763, "memórias": 2764, "consenti": 2765, "estiver": 2766, "intelligen": 2767, "answers": 2768, "direct": 2769, "something": 2770, "sources": 2771, "knows": 2772, "entities": 2773, "handling": 2774, "technolog": 2775, "injection": 2776, "abertura": 2777, "milhões": 2778, "relevo": 2779, "ambient": 2780, "occlusion": 2781, "parece": 2782, "ranhuras": 2783, "parafusos": 2784, "clássicos": 2785, "stretch": 2786, "antecipa": 2787, "through": 2788, "sional": 2789, "tecido": 2790, "vídeo": 2791, "mapeando": 2792, "equivalentes": 2793, "ajuste": 2794, "quadril": 2795, "kinematic": 2796, "rotações": 2797, "adaptar": 2798, "cabeça": 2799, "machine": 2800, "derivada": 2801, "tipagem": 2802, "turar": 2803, "StarterPlay": 2804, "envia": 2805, "armazenamento": 2806, "RetryUnt": 2807, "ilSafe": 2808, "limite": 2809, "requisições": 2810, "guarde": 2811, "publicar": 2812, "itere": 2813, "ícone": 2814, "thumbnail": 2815, "responda": 2816, "superam": 2817, "enviada": 2818, "combinar": 2819, "enviando": 2820, "physical": 2821, "based": 2822, "indústria": 2823, "rigado": 2824, "claros": 2825, "fonema": 2826, "limitada": 2827, "exageros": 2828, "coletar": 2829, "técnicas": 2830, "ciliação": 2831, "escolha": 2832, "abordagens": 2833, "validar": 2834, "fatia": 2835, "polimento": 2836, "calibra": 2837, "grande": 2838, "janela": 2839, "Automati": 2840, "pacotes": 2841, "automáti": 2842, "compila": 2843, "rápido": 2844, "integração": 2845, "abrem": 2846, "medir": 2847, "mantendo": 2848, "baixos": 2849, "pipelines": 2850, "célula": 2851, "começa": 2852, "colapsando": 2853, "válida": 2854, "coerentes": 2855, "aparência": 2856, "ambiente": 2857, "realista": 2858, "soluções": 2859, "baixo": 2860, "estáticos": 2861, "baratos": 2862, "fumaça": 2863, "segue": 2864, "Physics": 2865, "esferas": 2866, "cápsulas": 2867, "limites": 2868, "Limites": 2869, "estirame": 2870, "acertos": 2871, "startup": 2872, "recovery": 2873, "avançados": 2874, "decidem": 2875, "idiomas": 2876, "espaço": 2877, "Começar": 2878, "tabela": 2879, "enorme": 2880, "acessibilidade": 2881, "completo": 2882, "ajustável": 2883, "sazônicos": 2884, "receita": 2885, "equilibra": 2886, "frustração": 2887, "hardcore": 2888, "comprar": 2889, "completos": 2890, "Asset": 2891, "modelos": 2892, "packs": 2893, "comprados": 2894, "tools": 2895, "Tools": 2896, "inteira": 2897, "moderação": 2898, "tolerar": 2899, "garam": 2900, "painéis": 2901, "publicação": 2902, "montanhas": 2903, "Transições": 2904, "compasso": 2905, "mixagem": 2906, "mantêm": 2907, "coeso": 2908, "nizadas": 2909, "cresce": 2910, "técnica": 2911, "interativas": 2912, "repete": 2913, "computadores": 2914, "rápidos": 2915, "Exemplo": 2916, "contêiner": 2917, "coisa": 2918, "Transforma": 2919, "Sprite": 2920, "reusar": 2921, "significa": 2922, "tadora": 2923, "alinhada": 2924, "retângul": 2925, "colidem": 2926, "direita": 2927, "barato": 2928, "presas": 2929, "pedir": 2930, "tilemap": 2931, "Tilemap": 2932, "acerta": 2933, "linear": 2934, "integra": 2935, "possível": 2936, "relevante": 2937, "Valide": 2938, "viram": 2939, "começar": 2940, "Escolha": 2941, "documenta": 2942, "pooling": 2943, "Pooling": 2944, "repeats": 2945, "three": 2946, "update": 2947, "screen": 2948, "object": 2949, "movement": 2950, "health": 2951, "drawing": 2952, "Entities": 2953, "combine": 2954, "challenge": 2955, "safely": 2956, "Playtest": 2957, "players": 2958, "teams": 2959, "change": 2960, "changes": 2961, "Reduza": 2962, "Modelagem": 2963, "escopo": 2964, "gigante": 2965, "técnico": 2966, "explicar": 2967, "executada": 2968, "contexto": 2969, "resultados": 2970, "executou": 2971, "recusar": 2972, "internet": 2973, "registra": 2974, "tokens": 2975, "segredos": 2976, "instalado": 2977, "project": 2978, "results": 2979, "projects": 2980, "claras": 2981, "alguns": 2982, "achatá": 2983, "esticar": 2984, "sobreposição": 2985, "transfere": 2986, "extras": 2987, "modernos": 2988, "incluem": 2989, "secondary": 2990, "animador": 2991, "corrigir": 2992, "targetar": 2993, "inverse": 2994, "inversa": 2995, "degrau": 2996, "animar": 2997, "modernas": 2998, "estruturar": 2999, "Estruture": 3000, "confie": 3001, "autoridade": 3002, "entradas": 3003, "sentidos": 3004, "tabelas": 3005, "Publique": 3006, "divulgar": 3007, "trocadas": 3008, "framerate": 3009, "desenho": 3010, "muitas": 3011, "instanciar": 3012, "diminui": 3013, "instancing": 3014, "Instancing": 3015, "pedras": 3016, "animada": 3017, "edades": 3018, "metalicidade": 3019, "checklist": 3020, "sobrancelha": 3021, "aceleração": 3022, "Pequenos": 3023, "impacto": 3024, "reconciliação": 3025, "adversário": 3026, "imediata": 3027, "detectar": 3028, "produção": 3029, "Execução": 3030, "comando": 3031, "caminho": 3032, "aparecem": 3033, "essencial": 3034, "alocações": 3035, "Otimize": 3036, "demanda": 3037, "mipmaps": 3038, "terrenos": 3039, "adjacência": 3040, "dinâmicas": 3041, "dinâmicos": 3042, "articulam": 3043, "pintados": 3044, "entrega": 3045, "impactos": 3046, "suporte": 3047, "acentos": 3048, "formatos": 3049, "retrabalho": 3050, "daltonismo": 3051, "legendas": 3052, "dificuldade": 3053, "amplia": 3054, "público": 3055, "comunidade": 3056, "definir": 3057, "primeira": 3058, "definem": 3059, "Melhorar": 3060, "lugares": 3061, "diferente": 3062, "artistas": 3063, "sucesso": 3064, "internas": 3065, "importadores": 3066, "multiplayer": 3067, "autoritativo": 3068, "carregaram": 3069, "reutilizável": 3070, "bibliotecas": 3071}, "merges": [["d", "e"], ["e", "s"], ["T", "A"], ["r", "a"], ["n", "t"], ["o", "s"], ["m", "a"], ["c", "o"], ["e", "r"], ["q", "u"], ["a", "r"], ["d", "o"], ["d", "a"], ["i", "s"], ["\n", "\n"], ["E", "R"], ["i", "n"], ["m", "e"], ["r", "e"], ["ã", "o"], ["E", "S"], ["t", "a"], ["P", "ER"], ["G", "U"], ["N", "TA"], ["R", "ES"], ["P", "O"], ["S", "TA"], ["GU", "NTA"], ["PO", "STA"], ["PER", "GUNTA"], ["RES", "POSTA"], ["qu", "e"], ["a", "l"], ["a", "s"], ["e", "m"], ["o", "r"], ["i", "c"], ["r", "o"], ["co", "m"], ["t", "e"], ["v", "e"], ["a", "n"], ["ç", "ão"], ["p", "a"], ["o", "g"], ["t", "o"], ["r", "i"], ["t", "i"], ["o", "n"], ["nt", "o"], ["l", "e"], ["l", "a"], ["j", "og"], ["d", "i"], ["e", "n"], ["u", "s"], ["u", "a"], ["h", "a"], ["e", "nt"], ["m", "o"], ["p", "ro"], ["l", "o"], ["l", "i"], ["c", "i"], ["p", "o"], ["ma", "is"], ["pa", "ra"], ["u", "m"], ["p", "or"], ["c", "e"], ["Q", "ua"], ["t", "u"], ["ic", "a"], ["Qua", "nto"], ["s", "i"], ["v", "i"], ["n", "o"], ["n", "os"], ["da", "de"], ["p", "e"], ["s", "o"], ["c", "a"], ["v", "er"], ["r", "es"], ["in", "g"], ["jog", "o"], ["s", "e"], ["me", "nos"], ["d", "os"], ["u", "n"], ["g", "a"], ["h", "e"], ["u", "ma"], ["t", "es"], ["p", "l"], ["o", "b"], ["nt", "e"], ["de", "s"], ["ve", "z"], ["õ", "es"], ["p", "er"], ["g", "ra"], ["in", "e"], ["t", "ra"], ["co", "n"], ["u", "l"], ["m", "i"], ["t", "os"], ["g", "e"], ["b", "a"], ["z", "a"], ["p", "os"], ["me", "nto"], ["e", "x"], ["ç", "ões"], ["c", "ri"], ["j", "e"], ["g", "o"], ["o", "u"], ["t", "s"], ["p", "ar"], ["i", "ma"], ["al", "i"], ["d", "u"], ["s", "ão"], ["tu", "ra"], ["vez", "es"], ["g", "u"], ["f", "a"], ["t", "ar"], ["a", "da"], ["a", "do"], ["f", "or"], ["C", "o"], ["a", "m"], ["t", "er"], ["i", "l"], ["l", "u"], ["an", "do"], ["i", "a"], ["g", "em"], ["t", "em"], ["l", "ha"], ["da", "s"], ["an", "ima"], ["com", "p"], ["c", "k"], ["n", "ão"], ["v", "o"], ["t", "ic"], ["te", "x"], ["A", "R"], ["K", "H"], ["AR", "KH"], ["ARKH", "ER"], ["s", "er"], ["p", "re"], ["p", "i"], ["p", "as"], ["ç", "a"], ["R", "ob"], ["f", "e"], ["ga", "me"], ["co", "r"], ["in", "a"], ["lo", "x"], ["jog", "os"], ["Rob", "lox"], ["ent", "e"], ["nt", "es"], ["á", "ri"], ["c", "ó"], ["o", "p"], ["a", "d"], ["c", "ar"], ["c", "h"], ["h", "o"], ["co", "nt"], ["ta", "do"], ["có", "di"], ["nt", "os"], ["de", "r"], ["pl", "us"], ["for", "ma"], ["códi", "go"], ["n", "as"], ["i", "dade"], ["n", "ci"], ["f", "ica"], ["b", "i"], ["t", "r"], ["n", "a"], ["en", "g"], ["an", "d"], ["on", "a"], ["anima", "ção"], ["ha", "t"], ["s", "em"], ["c", "u"], ["t", "or"], ["s", "a"], ["i", "nt"], ["a", "o"], ["s", "ta"], ["t", "re"], ["e", "l"], ["s", "is"], ["ra", "me"], ["po", "l"], ["si", "m"], ["ob", "je"], ["ve", "l"], ["jog", "ado"], ["tra", "n"], ["O", "N"], ["f", "er"], ["s", "u"], ["f", "í"], ["s", "ica"], ["i", "m"], ["ic", "i"], ["do", "r"], ["qu", "ando"], ["qu", "i"], ["ma", "lha"], ["Co", "mo"], ["com", "o"], ["Q", "U"], ["T", "I"], ["W", "hat"], ["A", "N"], ["S", "W"], ["QU", "ES"], ["TI", "ON"], ["AN", "SW"], ["QUES", "TION"], ["ANSW", "ER"], ["ê", "nci"], ["n", "e"], ["j", "u"], ["l", "ine"], ["p", "la"], ["m", "es"], ["c", "he"], ["c", "al"], ["c", "li"], ["i", "x"], ["as", "e"], ["ba", "ck"], ["vi", "mento"], ["gu", "ar"], ["mo", "de"], ["por", "ta"], ["ser", "vi"], ["cri", "p"], ["sis", "te"], ["tem", "po"], ["i", "t"], ["p", "r"], ["i", "r"], ["g", "ar"], ["v", "a"], ["l", "es"], ["m", "er"], ["ri", "a"], ["co", "nte"], ["di", "o"], ["nt", "a"], ["ra", "r"], ["pro", "du"], ["ári", "o"], ["int", "er"], ["eng", "ine"], ["cli", "ente"], ["cont", "ro"], ["guar", "da"], ["servi", "dor"], ["1", "2"], ["pro", "je"], ["i", "nte"], ["f", "ici"], ["E", "la"], ["b", "e"], ["s", "ó"], ["v", "ali"], ["p", "u"], ["I", "t"], ["a", "c"], ["p", "s"], ["b", "u"], ["C", "ada"], ["R", "e"], ["i", "ção"], ["f", "un"], ["s", "ona"], ["s", "os"], ["d", "ra"], ["ta", "m"], ["ma", "s"], ["ve", "lo"], ["mo", "vimento"], ["ma", "ter"], ["re", "al"], ["es", "tado"], ["tex", "tura"], ["per", "sona"], ["ent", "ra"], ["ênci", "a"], ["obje", "tos"], ["1", "0"], ["a", "u"], ["b", "ra"], ["c", "is"], ["h", "as"], ["m", "ó"], ["p", "ri"], ["t", "he"], ["g", "en"], ["y", "s"], ["3", "D"], ["í", "g"], ["p", "es"], ["c", "os"], ["o", "l"], ["A", "A"], ["b", "le"], ["a", "ntes"], ["e", "d"], ["f", "in"], ["es", "t"], ["lo", "op"], ["za", "ção"], ["me", "mó"], ["ve", "nt"], ["il", "d"], ["ma", "p"], ["qu", "ad"], ["ci", "dade"], ["ro", "da"], ["ic", "e"], ["pre", "cis"], ["des", "en"], ["ent", "es"], ["ent", "re"], ["dra", "w"], ["crip", "ts"], ["velo", "cidade"], ["jogado", "r"], ["1", "1"], ["i", "ta"], ["b", "o"], ["ú", "do"], ["c", "es"], ["c", "l"], ["e", "ta"], ["U", "V"], ["g", "an"], ["h", "ar"], ["v", "is"], ["k", "e"], ["j", "us"], ["s", "ha"], ["z", "ar"], ["T", "es"], ["m", "un"], ["n", "ú"], ["fí", "sica"], ["og", "ia"], ["ti", "on"], ["co", "de"], ["bu", "ild"], ["pi", "pe"], ["si", "on"], ["íg", "on"], ["ma", "l"], ["ca", "da"], ["ra", "ção"], ["re", "gra"], ["ia", "is"], ["ti", "me"], ["pol", "ígon"], ["pos", "ição"], ["ver", "são"], ["memó", "ria"], ["tran", "s"], ["conte", "údo"], ["mater", "iais"], ["polígon", "os"], ["ge", "ra"], ["i", "za"], ["d", "r"], ["n", "un"], ["v", "os"], ["c", "us"], ["b", "re"], ["c", "le"], ["t", "h"], ["g", "n"], ["n", "or"], ["f", "rame"], ["t", "ro"], ["v", "al"], ["â", "me"], ["f", "i"], ["e", "vi"], ["r", "á"], ["i", "tos"], ["c", "ul"], ["r", "os"], ["b", "al"], ["pa", "dr"], ["es", "ta"], ["ar", "qui"], ["di", "fer"], ["bi", "li"], ["is", "so"], ["tr", "u"], ["es", "ti"], ["in", "sta"], ["si", "gn"], ["to", "pol"], ["UV", "s"], ["ma", "pas"], ["ul", "ar"], ["ta", "l"], ["so", "m"], ["Co", "m"], ["ma", "das"], ["pl", "ica"], ["le", "to"], ["os", "sos"], ["pe", "que"], ["ti", "mi"], ["la", "ção"], ["as", "se"], ["ve", "is"], ["nú", "mer"], ["nun", "ca"], ["tes", "te"], ["ent", "idade"], ["par", "e"], ["ada", "p"], ["com", "un"], ["tic", "al"], ["car", "re"], ["pla", "y"], ["pro", "gra"], ["fici", "al"], ["padr", "ão"], ["bili", "dade"], ["vali", "da"], ["mode", "lo"], ["comp", "on"], ["pipe", "line"], ["topol", "ogia"], ["precis", "a"], ["persona", "gem"], ["1", "3"], ["f", "o"], ["\n\n", "\n"], ["proje", "to"], ["A", "I"], ["b", "ase"], ["u", "ário"], ["i", "ro"], ["a", "ce"], ["c", "la"], ["U", "m"], ["i", "fica"], ["p", "lo"], ["s", "en"], ["p", "h"], ["i", "to"], ["a", "to"], ["A", "s"], ["m", "ing"], ["M", "o"], ["e", "qui"], ["o", "te"], ["S", "er"], ["g", "res"], ["a", "ta"], ["l", "is"], ["a", "t"], ["í", "vel"], ["l", "on"], ["m", "u"], ["c", "as"], ["P", "B"], ["p", "res"], ["í", "veis"], ["á", "vel"], ["e", "co"], ["i", "ra"], ["l", "ta"], ["on", "de"], ["us", "uário"], ["di", "re"], ["si", "bilidade"], ["nt", "as"], ["me", "ntos"], ["ex", "i"], ["in", "pu"], ["re", "n"], ["so", "bre"], ["pr", "in"], ["te", "n"], ["in", "vent"], ["im", "porta"], ["ic", "s"], ["de", "sign"], ["le", "ta"], ["de", "po"], ["tu", "re"], ["fa", "z"], ["lu", "z"], ["ca", "madas"], ["fa", "ci"], ["or", "es"], ["es", "que"], ["cu", "la"], ["us", "a"], ["da", "dos"], ["qu", "ali"], ["ba", "ra"], ["PB", "R"], ["qu", "er"], ["ar", "te"], ["nt", "i"], ["ti", "l"], ["ma", "n"], ["am", "ing"], ["an", "ce"], ["mo", "ve"], ["de", "lta"], ["pos", "ta"], ["fun", "ci"], ["com", "b"], ["tar", "ge"], ["cal", "cula"], ["con", "fi"], ["gen", "s"], ["mes", "mo"], ["sha", "der"], ["ver", "tical"], ["cri", "a"], ["gra", "n"], ["eco", "no"], ["tre", "aming"], ["mun", "do"], ["Tes", "te"], ["inpu", "t"], ["depo", "is"], ["tran", "si"], ["adap", "ta"], ["esta", "dos"], ["esque", "leto"], ["siste", "ma"], ["regra", "s"], ["quali", "dade"], ["jogado", "res"], ["contro", "les"], ["progra", "m"], ["1", "7"], ["1", "6"], ["3", "0"], ["s", "ua"], ["a", "ções"], ["h", "i"], ["U", "ma"], ["a", "ju"], ["s", "cripts"], ["l", "in"], ["v", "ar"], ["c", "er"], ["o", "f"], ["l", "an"], ["g", "ua"], ["l", "og"], ["c", "tion"], ["k", "ing"], ["g", "ing"], ["l", "as"], ["b", "em"], ["x", "el"], ["e", "le"], ["u", "al"], ["g", "h"], ["i", "tura"], ["f", "ina"], ["p", "é"], ["r", "u"], ["a", "jus"], ["E", "m"], ["ç", "ar"], ["m", "á"], ["S", "cripts"], ["R", "em"], ["a", "mento"], ["f", "al"], ["l", "back"], ["o", "timi"], ["P", "a"], ["u", "cos"], ["c", "âme"], ["g", "rá"], ["z", "ir"], ["m", "in"], ["l", "y"], ["c", "re"], ["g", "os"], ["i", "al"], ["t", "ó"], ["p", "li"], ["t", "é"], ["f", "il"], ["g", "as"], ["t", "is"], ["i", "mi"], ["e", "di"], ["3", "5"], ["1", "5"], ["en", "d"], ["au", "tor"], ["us", "ada"], ["vo", "l"], ["tr", "os"], ["ex", "plo"], ["on", "line"], ["ar", "e"], ["er", "s"], ["ch", "an"], ["la", "gem"], ["or", "gan"], ["an", "e"], ["vi", "ra"], ["ma", "pa"], ["li", "ga"], ["su", "per"], ["fí", "ci"], ["pa", "co"], ["de", "tal"], ["pl", "es"], ["ic", "os"], ["le", "itura"], ["do", "is"], ["li", "mi"], ["ic", "ar"], ["fe", "ed"], ["mo", "bi"], ["Pa", "ra"], ["po", "ucos"], ["pe", "la"], ["re", "pe"], ["ul", "ti"], ["re", "a"], ["qu", "al"], ["fe", "itos"], ["me", "di"], ["au", "to"], ["ma", "ti"], ["za", "dos"], ["al", "o"], ["ma", "nt"], ["ix", "a"], ["um", "ina"], ["us", "am"], ["vi", "da"], ["da", "ta"], ["fa", "ce"], ["ti", "vo"], ["com", "porta"], ["res", "p"], ["cla", "ra"], ["res", "ul"], ["con", "s"], ["exi", "gem"], ["aju", "da"], ["cri", "ar"], ["tra", "pa"], ["nor", "mal"], ["sim", "ples"], ["vis", "ual"], ["cor", "ri"], ["ica", "ção"], ["Rem", "ote"], ["pro", "gres"], ["cal", "l"], ["grá", "fica"], ["fin", "al"], ["tes", "tes"], ["tex", "to"], ["pas", "so"], ["comp", "leta"], ["feed", "back"], ["mobi", "le"], ["câme", "ra"], ["qual", "quer"], ["quad", "ro"], ["gran", "des"], ["forma", "s"], ["super", "fíci"], ["detal", "he"], ["funci", "ona"], ["inter", "po"], ["confi", "gu"], ["trans", "par"], ["desen", "ha"], ["entra", "da"], ["umina", "ção"], ["inter", "face"], ["compon", "ent"], ["textura", "s"], ["comporta", "mento"], ["1", "4"], ["5", "4"], ["3", "1"], ["2", "7"], ["2", "9"], ["2", "0"], ["4", "3"], ["2", "4"], ["fo", "ntes"], ["e", "cu"], ["o", "ficial"], ["f", "ra"], ["ê", "s"], ["p", "ó"], ["a", "ção"], ["A", "ções"], ["v", "as"], ["p", "al"], ["ç", "as"], ["i", "ts"], ["T", "he"], ["c", "t"], ["l", "ing"], ["a", "b"], ["g", "ging"], ["l", "h"], ["b", "ri"], ["o", "lu"], ["á", "s"], ["d", "ar"], ["m", "ã"], ["z", "en"], ["n", "u"], ["a", "po"], ["L", "ua"], ["l", "ho"], ["E", "vent"], ["E", "s"], ["l", "ó"], ["g", "ica"], ["S", "to"], ["P", "la"], ["M", "a"], ["v", "ê"], ["b", "li"], ["f", "re"], ["L", "O"], ["a", "par"], ["t", "â"], ["m", "ulti"], ["á", "gua"], ["x", "o"], ["T", "ex"], ["m", "or"], ["v", "é"], ["r", "tic"], ["s", "or"], ["n", "ce"], ["D", "e"], ["s", "l"], ["t", "ência"], ["t", "í"], ["z", "e"], ["i", "medi"], ["t", "code"], ["c", "n"], ["u", "la"], ["V", "er"], ["f", "ase"], ["c", "ali"], ["I", "s"], ["a", "ve"], ["t", "map"], ["P", "ar"], ["u", "dio"], ["e", "ve"], ["T", "ra"], ["e", "fici"], ["S", "treaming"], ["E", "na"], ["S", "tu"], ["U", "I"], ["l", "er"], ["e", "ix"], ["y", "cas"], ["h", "is"], ["1", "9"], ["4", "8"], ["pr", "ó"], ["de", "f"], ["al", "go"], ["hi", "pó"], ["re", "g"], ["in", "es"], ["de", "ri"], ["ou", "tros"], ["te", "c"], ["la", "do"], ["ph", "ys"], ["te", "ch"], ["re", "f"], ["re", "topologia"], ["ba", "king"], ["tu", "ri"], ["le", "ve"], ["al", "ta"], ["cu", "r"], ["pi", "xel"], ["cl", "ás"], ["ti", "ming"], ["AA", "A"], ["ca", "p"], ["ce", "du"], ["pé", "s"], ["mã", "os"], ["ch", "ão"], ["tu", "do"], ["má", "qu"], ["em", "p"], ["ló", "gica"], ["Mo", "du"], ["le", "Scripts"], ["en", "vi"], ["to", "da"], ["ce", "do"], ["re", "ten"], ["te", "la"], ["LO", "D"], ["el", "ho"], ["de", "m"], ["Re", "du"], ["in", "ar"], ["ic", "as"], ["es", "cul"], ["vé", "rtic"], ["on", "e"], ["De", "fina"], ["sl", "ice"], ["tí", "cul"], ["to", "que"], ["tó", "ti"], ["de", "mais"], ["té", "cn"], ["lu", "ta"], ["ga", "ra"], ["re", "produ"], ["me", "de"], ["Is", "so"], ["ar", "tis"], ["se", "ed"], ["il", "uminação"], ["gh", "tmap"], ["ta", "man"], ["lu", "gar"], ["it", "bo"], ["de", "ci"], ["Co", "me"], ["op", "ções"], ["pa", "ck"], ["er", "e"], ["in", "imi"], ["di", "ver"], ["ke", "e"], ["tes", "e"], ["est", "ão"], ["ver", "ifica"], ["fer", "rame"], ["ali", "za"], ["eng", "ines"], ["ent", "i"], ["res", "posta"], ["tru", "ir"], ["res", "olu"], ["bra", "s"], ["nas", "ce"], ["pro", "cedu"], ["pos", "es"], ["com", "par"], ["evi", "ta"], ["che", "ga"], ["gan", "ha"], ["pla", "ca"], ["ace", "le"], ["pro", "tóti"], ["pli", "fica"], ["val", "ores"], ["pos", "s"], ["jog", "ável"], ["con", "for"], ["est", "á"], ["har", "d"], ["ter", "re"], ["lon", "go"], ["ver", "draw"], ["lis", "ão"], ["Ser", "ve"], ["ver", "y"], ["pri", "me"], ["Ena", "ble"], ["Stu", "dio"], ["back", "end"], ["resp", "onde"], ["hipó", "tese"], ["loop", "s"], ["prin", "ci"], ["pare", "cer"], ["mode", "lagem"], ["comb", "ina"], ["máqu", "ina"], ["para", "do"], ["crip", "t"], ["roda", "m"], ["Modu", "leScripts"], ["obje", "to"], ["bara", "ta"], ["asse", "ts"], ["equi", "pe"], ["auto", "mati"], ["asse", "t"], ["itbo", "x"], ["quad", "ros"], ["play", "er"], ["faci", "li"], ["ycas", "t"], ["produ", "to"], ["arqui", "vos"], ["explo", "its"], ["arqui", "vo"], ["organ", "iza"], ["difer", "entes"], ["comun", "icação"], ["Event", "s"], ["reten", "ção"], ["tícul", "as"], ["build", "s"], ["econo", "mi"], ["siste", "mas"], ["taman", "ho"], ["númer", "os"], ["carre", "gar"], ["peque", "no"], ["númer", "o"], ["resolu", "ção"], ["transi", "ções"], ["Remote", "Events"], ["invent", "ário"], ["confor", "me"], ["Enable", "d"], ["procedu", "ra"], ["progres", "so"], ["interpo", "lação"], ["persona", "gens"], ["configu", "ra"], ["program", "mer"], ["automati", "zados"], ["Streaming", "Enabled"], ["3", "3"], ["4", "6"], ["6", "8"], ["2", "3"], ["2", "5"], ["4", "0"], ["1", "8"], ["5", "1"], ["8", "1"], ["2", "8"], ["3", "7"], ["2", "1"], ["4", "4"], ["F", "a"], ["9", "7"], ["8", "0"], ["4", "1"], ["2", "6"], ["3", "4"], ["pe", "lo"], ["i", "de"], ["g", "ência"], ["i", "dio"], ["h", "on"], ["Q", "u"], ["e", "la"], ["g", "estão"], ["i", "tar"], ["a", "conte"], ["F", "er"], ["b", "é"], ["d", "ica"], ["m", "os"], ["i", "le"], ["n", "em"], ["c", "en"], ["s", "ári"], ["s", "al"], ["S", "e"], ["k", "no"], ["c", "ts"], ["s", "pe"], ["a", "ts"], ["é", "is"], ["g", "un"], ["2", "D"], ["I", "l"], ["b", "or"], ["c", "í"], ["O", "s"], ["A", "n"], ["â", "ne"], ["b", "lo"], ["R", "i"], ["a", "tor"], ["a", "plica"], ["t", "mo"], ["t", "ing"], ["n", "d"], ["m", "is"], ["r", "er"], ["í", "nu"], ["p", "ular"], ["s", "cript"], ["v", "ice"], ["v", "am"], ["D", "ata"], ["U", "se"], ["b", "l"], ["l", "ular"], ["a", "comp"], ["d", "is"], ["M", "e"], ["s", "ões"], ["M", "u"], ["n", "c"], ["v", "ári"], ["S", "ha"], ["a", "pro"], ["x", "ima"], ["e", "dade"], ["a", "tu"], ["j", "ar"], ["u", "eta"], ["C", "on"], ["G", "a"], ["a", "g"], ["J", "u"], ["e", "feitos"], ["c", "ro"], ["l", "lback"], ["J", "og"], ["E", "x"], ["ú", "til"], ["c", "em"], ["P", "ro"], ["P", "U"], ["g", "alo"], ["O", "timi"], ["s", "treaming"], ["w", "are"], ["e", "ra"], ["f", "as"], ["f", "ixa"], ["l", "la"], ["p", "se"], ["n", "íveis"], ["g", "lo"], ["v", "es"], ["s", "on"], ["d", "in"], ["â", "m"], ["L", "i"], ["ç", "o"], ["s", "ys"], ["o", "verdraw"], ["E", "le"], ["k", "in"], ["l", "l"], ["h", "itbox"], ["B", "al"], ["L", "o"], ["á", "udio"], ["s", "tr"], ["A", "ces"], ["m", "y"], ["D", "1"], ["s", "es"], ["a", "pre"], ["n", "der"], ["m", "ine"], ["t", "ri"], ["o", "ol"], ["N", "o"], ["D", "o"], ["B", "o"], ["m", "ú"], ["x", "a"], ["ê", "m"], ["j", "é"], ["F", "í"], ["B", "B"], ["z", "er"], ["á", "log"], ["L", "e"], ["e", "very"], ["s", "mal"], ["w", "it"], ["g", "es"], ["9", "5"], ["8", "3"], ["5", "8"], ["7", "0"], ["4", "7"], ["9", "2"], ["4", "2"], ["3", "2"], ["2", "2"], ["li", "gência"], ["ar", "ti"], ["ex", "ecu"], ["ta", "da"], ["se", "u"], ["sa", "be"], ["di", "z"], ["to", "u"], ["en", "ci"], ["fa", "to"], ["su", "gestão"], ["po", "de"], ["do", "u"], ["ti", "vas"], ["ex", "pl"], ["bo", "as"], ["bé", "m"], ["in", "je"], ["ta", "formas"], ["ne", "ces"], ["ex", "por"], ["cl", "are"], ["no", "t"], ["so", "me"], ["ac", "tion"], ["me", "nt"], ["ti", "es"], ["ga", "mes"], ["me", "chan"], ["bu", "g"], ["us", "es"], ["ce", "ito"], ["ri", "gging"], ["ex", "porta"], ["de", "forma"], ["li", "m"], ["re", "le"], ["am", "bi"], ["As", "sim"], ["ra", "s"], ["mo", "der"], ["cí", "pi"], ["An", "ima"], ["nt", "âne"], ["ar", "tes"], ["an", "al"], ["de", "zen"], ["li", "z"], ["ri", "tmo"], ["ou", "tro"], ["ma", "pe"], ["in", "ver"], ["al", "c"], ["al", "vo"], ["ol", "ve"], ["di", "ção"], ["ua", "gem"], ["ci", "on"], ["en", "ho"], ["me", "lho"], ["el", "es"], ["ti", "lha"], ["Ma", "nt"], ["en", "ha"], ["me", "n"], ["in", "da"], ["sa", "ve"], ["pu", "bl"], ["ce", "lular"], ["ça", "mento"], ["fe", "ito"], ["us", "e"], ["fa", "ça"], ["Me", "ça"], ["tâ", "nci"], ["ce", "be"], ["ra", "te"], ["nc", "ing"], ["ti", "dos"], ["si", "co"], ["qu", "ase"], ["al", "be"], ["me", "tal"], ["ru", "gos"], ["is", "o"], ["pl", "ane"], ["in", "di"], ["vo", "lu"], ["si", "lh"], ["Fa", "ça"], ["fe", "el"], ["Ga", "me"], ["me", "ra"], ["im", "pa"], ["Ju", "ice"], ["ne", "tcode"], ["ju", "nto"], ["ro", "llback"], ["es", "co"], ["ti", "ro"], ["de", "tec"], ["im", "poss"], ["as", "s"], ["he", "ad"], ["as", "sim"], ["rá", "pi"], ["ba", "ix"], ["re", "du"], ["de", "pu"], ["co", "lla"], ["ti", "r"], ["co", "me"], ["ba", "te"], ["li", "ghtmap"], ["ne", "d"], ["se", "gu"], ["ju", "ntas"], ["ix", "as"], ["do", "ll"], ["ac", "er"], ["ti", "vos"], ["ca", "ixa"], ["go", "l"], ["op", "s"], ["ta", "lha"], ["re", "cur"], ["co", "re"], ["de", "fin"], ["te", "nti"], ["nt", "ar"], ["di", "versão"], ["re", "tor"], ["ra", "in"], ["te", "las"], ["mú", "sica"], ["mo", "ver"], ["Fí", "sica"], ["co", "lisão"], ["AA", "BB"], ["me", "nor"], ["ti", "le"], ["ra", "ycast"], ["to", "car"], ["ti", "do"], ["di", "álog"], ["va", "mentos"], ["le", "vel"], ["fra", "se"], ["def", "ine"], ["pos", "sibilidade"], ["ver", "dade"], ["Fer", "rame"], ["reg", "is"], ["vol", "vimento"], ["ren", "deri"], ["tam", "bém"], ["por", "que"], ["cle", "ar"], ["kno", "w"], ["ren", "der"], ["cle", "an"], ["eta", "pas"], ["con", "ceito"], ["tex", "turi"], ["eta", "pa"], ["ver", "sion"], ["car", "o"], ["bri", "r"], ["cor", "tar"], ["fer", "e"], ["som", "bras"], ["pos", "e"], ["pro", "por"], ["tre", "e"], ["mis", "tura"], ["cor", "te"], ["and", "ar"], ["cor", "rer"], ["res", "olve"], ["sta", "te"], ["Lua", "u"], ["des", "emp"], ["Pla", "y"], ["pre", "vê"], ["Sto", "re"], ["per", "der"], ["lan", "çamento"], ["tro", "ca"], ["lon", "ge"], ["gra", "de"], ["cus", "tam"], ["Sha", "der"], ["des", "cre"], ["che", "ck"], ["pes", "os"], ["res", "to"], ["sis", "tência"], ["par", "tículas"], ["con", "junto"], ["jus", "to"], ["che", "at"], ["cus", "to"], ["les", "s"], ["lin", "ha"], ["Tes", "tes"], ["gra", "ção"], ["fil", "ing"], ["alo", "ca"], ["gar", "galo"], ["apo", "nta"], ["mun", "dos"], ["que", "m"], ["vis", "ão"], ["fas", "es"], ["fun", "ction"], ["glo", "bal"], ["sua", "ves"], ["din", "âm"], ["tic", "le"], ["sys", "tem"], ["ele", "mentos"], ["kin", "ned"], ["mes", "h"], ["evi", "tam"], ["sim", "plifica"], ["con", "siste"], ["Bal", "ance"], ["bal", "ance"], ["str", "ing"], ["ira", "s"], ["eve", "ntos"], ["vol", "tam"], ["pro", "ps"], ["val", "e"], ["pro", "ntos"], ["edi", "tor"], ["par", "tes"], ["ter", "rain"], ["per", "mi"], ["Tra", "n"], ["des", "de"], ["eix", "os"], ["Ver", "sion"], ["ler", "p"], ["zer", "o"], ["rea", "is"], ["fal", "a"], ["tra", "vamentos"], ["wit", "h"], ["kee", "ps"], ["inte", "ligência"], ["arti", "ficial"], ["sári", "a"], ["phys", "ics"], ["cons", "truir"], ["cont", "ato"], ["dire", "ção"], ["tura", "s"], ["prin", "cípi"], ["faci", "al"], ["ajus", "tar"], ["cont", "ínu"], ["ling", "uagem"], ["cion", "al"], ["Mant", "enha"], ["Data", "Store"], ["call", "s"], ["ênci", "as"], ["apar", "elho"], ["gera", "m"], ["Redu", "zir"], ["vári", "as"], ["repe", "tidos"], ["clás", "sico"], ["apro", "xima"], ["albe", "do"], ["pres", "são"], ["indi", "e"], ["esti", "lo"], ["volu", "me"], ["silh", "ueta"], ["impa", "c"], ["head", "less"], ["gara", "nte"], ["paco", "te"], ["redu", "z"], ["hard", "ware"], ["depu", "rar"], ["inte", "iro"], ["cali", "zação"], ["Aces", "sibilidade"], ["apre", "nder"], ["Come", "ce"], ["game", "play"], ["tado", "res"], ["vali", "de"], ["fica", "m"], ["liga", "m"], ["mant", "er"], ["deci", "de"], ["pres", "sion"], ["smal", "l"], ["autor", "iza"], ["difer", "enci"], ["usada", "s"], ["desen", "volvimento"], ["trapa", "ças"], ["neces", "sária"], ["expor", "tar"], ["clare", "za"], ["Anima", "ção"], ["insta", "ntâne"], ["artes", "anal"], ["corri", "ge"], ["dezen", "as"], ["targe", "ting"], ["anima", "ções"], ["resul", "tado"], ["melho", "ra"], ["trapa", "ça"], ["acomp", "an"], ["peque", "nas"], ["otimi", "zação"], ["sobre", "posta"], ["tânci", "a"], ["multi", "plica"], ["rugos", "idade"], ["mater", "ial"], ["escul", "tura"], ["targe", "ts"], ["plane", "jar"], ["produ", "zir"], ["imedi", "ato"], ["carre", "ga"], ["artis", "t"], ["trans", "forma"], ["colla", "pse"], ["econo", "my"], ["recur", "sos"], ["tenti", "on"], ["acele", "ra"], ["efici", "entes"], ["retor", "na"], ["terre", "no"], ["prime", "iro"], ["entra", "m"], ["inimi", "gos"], ["diver", "tido"], ["proje", "tos"], ["contro", "le"], ["aconte", "ce"], ["princi", "pal"], ["render", "ing"], ["transi", "ção"], ["desemp", "enho"], ["compar", "tilha"], ["descre", "ve"], ["imposs", "íveis"], ["vértic", "e"], ["string", "s"], ["adapta", "tivo"], ["compon", "ente"], ["facili", "ta"], ["diálog", "o"], ["contro", "l"], ["renderi", "zação"], ["exporta", "ção"], ["protóti", "po"], ["reprodu", "z"], ["economi", "a"], ["ferrame", "ntas"], ["program", "ming"], ["entidade", "s"], ["princípi", "os"], ["transpar", "ências"], ["component", "s"], ["superfíci", "e"], ["procedura", "l"], ["superfíci", "es"], ["configura", "ções"], ["sobreposta", "s"], ["4", "5"], ["7", "7"], ["8", "9"], ["5", "9"], ["5", "0"], ["7", "5"], ["9", "3"], ["9", "6"], ["8", "7"], ["6", "5"], ["5", "6"], ["3", "6"], ["9", "1"], ["7", "2"], ["7", "6"], ["5", "5"], ["6", "6"], ["8", "6"], ["5", "7"], ["9", "8"], ["8", "4"], ["8", "2"], ["9", "9"], ["5", "2"], ["9", "4"], ["6", "9"], ["6", "4"], ["6", "0"], ["6", "3"], ["6", "2"], ["3", "9"], ["\n\n", "\n\n"], ["7", "4"], ["6", "1"], ["tic", "os"], ["m", "é"], ["3", "8"], ["4", "9"], ["ex", "ter"], ["exter", "nas"], ["p", "ria"], ["x", "to"], ["l", "ês"], ["l", "ici"], ["f", "ir"], ["í", "ci"], ["b", "á"], ["á", "tic"], ["l", "ogia"], ["o", "la"], ["g", "al"], ["F", "o"], ["s", "as"], ["v", "re"], ["b", "us"], ["a", "pa"], ["k", "en"], ["g", "re"], ["H", "on"], ["o", "w"], ["l", "li"], ["r", "un"], ["s", "w"], ["W", "h"], ["u", "r"], ["z", "es"], ["p", "ment"], ["b", "as"], ["h", "and"], ["p", "ra"], ["c", "tic"], ["I", "ts"], ["n", "ic"], ["l", "ps"], ["P", "ular"], ["c", "ane"], ["l", "har"], ["A", "brir"], ["ç", "am"], ["B", "a"], ["o", "c"], ["i", "on"], ["n", "h"], ["u", "ras"], ["f", "us"], ["s", "icos"], ["c", "lu"], ["s", "qu"], ["s", "tre"], ["t", "ch"], ["a", "nte"], ["f", "ol"], ["u", "gh"], ["c", "s"], ["f", "is"], ["y", "frame"], ["s", "ores"], ["v", "í"], ["g", "ita"], ["b", "ru"], ["g", "ir"], ["b", "rar"], ["B", "le"], ["k", "ine"], ["C", "in"], ["á", "t"], ["I", "K"], ["i", "ar"], ["m", "ão"], ["v", "ada"], ["F", "un"], ["S", "cript"], ["d", "Sto"], ["S", "tar"], ["s", "enti"], ["v", "inda"], ["y", "U"], ["S", "a"], ["i", "ções"], ["b", "el"], ["i", "aliza"], ["P", "u"], ["i", "ter"], ["í", "con"], ["b", "na"], ["v", "ul"], ["á", "lis"], ["A", "tu"], ["b", "ine"], ["n", "ível"], ["P", "er"], ["a", "grade"], ["D", "ra"], ["c", "ha"], ["u", "i"], ["I", "n"], ["G", "ra"], ["s", "tância"], ["u", "lação"], ["s", "icas"], ["d", "ú"], ["s", "t"], ["t", "ível"], ["M", "or"], ["r", "iso"], ["f", "one"], ["o", "ção"], ["e", "ze"], ["P", "e"], ["p", "is"], ["g", "ível"], ["í", "do"], ["N", "e"], ["R", "ol"], ["s", "ário"], ["s", "ente"], ["a", "nti"], ["A", "nti"], ["v", "esti"], ["j", "ane"], ["A", "u"], ["B", "u"], ["i", "la"], ["a", "pare"], ["s", "mo"], ["a", "bre"], ["C", "PU"], ["G", "PU"], ["u", "ição"], ["p", "ma"], ["G", "e"], ["e", "ator"], ["i", "edade"], ["d", "un"], ["w", "ave"], ["W", "ave"], ["j", "ac"], ["c", "é"], ["v", "á"], ["G", "era"], ["C", "us"], ["C", "en"], ["i", "te"], ["f", "og"], ["f", "uma"], ["e", "ira"], ["g", "ia"], ["r", "icos"], ["O", "verdraw"], ["l", "rate"], ["s", "kinned"], ["S", "kinned"], ["P", "es"], ["P", "h"], ["c", "á"], ["g", "doll"], ["R", "ag"], ["L", "imi"], ["H", "itbox"], ["F", "rame"], ["s", "tar"], ["a", "tivos"], ["a", "v"], ["n", "isso"], ["i", "ores"], ["b", "ar"], ["l", "to"], ["n", "is"], ["f", "ic"], ["t", "ável"], ["p", "ú"], ["o", "pe"], ["z", "ô"], ["n", "icos"], ["D", "a"], ["i", "am"], ["T", "or"], ["f", "lação"], ["f", "r"], ["S", "im"], ["u", "le"], ["a", "ntos"], ["D", "7"], ["D", "30"], ["M", "elho"], ["f", "im"], ["t", "f"], ["ó", "li"], ["c", "in"], ["z", "ing"], ["l", "os"], ["U", "s"], ["a", "us"], ["T", "ool"], ["ú", "di"], ["r", "é"], ["F", "il"], ["i", "ão"], ["á", "veis"], ["a", "inda"], ["u", "ti"], ["E", "les"], ["ç", "os"], ["n", "um"], ["f", "lu"], ["A", "P"], ["g", "ere"], ["M", "en"], ["S", "o"], ["Á", "udio"], ["s", "in"], ["n", "iza"], ["c", "res"], ["l", "has"], ["c", "ic"], ["c", "entra"], ["a", "nt"], ["i", "or"], ["D", "el"], ["M", "ulti"], ["f", "icar"], ["i", "gu"], ["u", "tadores"], ["i", "tem"], ["ê", "in"], ["s", "forma"], ["S", "pri"], ["e", "rar"], ["r", "íg"], ["i", "das"], ["a", "os"], ["n", "g"], ["p", "õ"], ["c", "ando"], ["x", "i"], ["i", "zar"], ["g", "it"], ["T", "ile"], ["R", "a"], ["i", "o"], ["o", "fere"], ["L", "er"], ["t", "ão"], ["a", "tivo"], ["n", "es"], ["j", "a"], ["A", "o"], ["g", "mento"], ["E", "feitos"], ["I", "m"], ["D", "an"], ["S", "ave"], ["v", "ado"], ["J", "S"], ["V", "ali"], ["n", "ó"], ["P", "on"], ["T", "er"], ["l", "ões"], ["P", "ool"], ["n", "uma"], ["o", "ci"], ["c", "y"], ["s", "te"], ["u", "p"], ["w", "or"], ["l", "d"], ["s", "cre"], ["j", "ob"], ["E", "nti"], ["T", "his"], ["a", "vo"], ["i", "d"], ["e", "p"], ["h", "er"], ["c", "ra"], ["f", "t"], ["s", "pa"], ["t", "hat"], ["a", "ch"], ["n", "ge"], ["w", "ar"], ["G", "o"], ["o", "d"], ["e", "ar"], ["w", "at"], ["w", "h"], ["s", "tu"], ["A", "r"], ["b", "inar"], ["e", "f"], ["f", "ro"], ["G", "ere"], ["t", "êm"], ["C", "or"], ["d", "ó"], ["g", "i"], ["n", "ado"], ["i", "co"], ["n", "ada"], ["A", "no"], ["7", "9"], ["7", "3"], ["8", "5"], ["8", "8"], ["6", "7"], ["nt", "idade"], ["en", "de"], ["tu", "gu"], ["si", "le"], ["so", "lici"], ["Qu", "ando"], ["in", "ve"], ["fa", "tos"], ["ta", "dos"], ["re", "cus"], ["ul", "tou"], ["ne", "t"], ["ro", "dou"], ["le", "u"], ["ar", "gu"], ["ma", "ção"], ["es", "pe"], ["ci", "aliza"], ["he", "ce"], ["bá", "sica"], ["pr", "átic"], ["as", "su"], ["fo", "co"], ["no", "logia"], ["de", "v"], ["ju", "dica"], ["vi", "ola"], ["ad", "ul"], ["Fo", "ra"], ["li", "vre"], ["su", "ra"], ["ri", "as"], ["to", "ken"], ["se", "gre"], ["in", "ado"], ["in", "forma"], ["ow", "n"], ["of", "ficial"], ["an", "sw"], ["us", "er"], ["Wh", "en"], ["do", "es"], ["th", "ing"], ["sa", "ys"], ["ne", "ver"], ["fa", "cts"], ["so", "ur"], ["di", "d"], ["ci", "ali"], ["de", "velo"], ["ma", "in"], ["no", "log"], ["he", "lps"], ["us", "ers"], ["de", "bug"], ["pl", "an"], ["ab", "er"], ["co", "bra"], ["Re", "topologia"], ["re", "construir"], ["an", "éis"], ["es", "cane"], ["mi", "lh"], ["al", "gun"], ["mi", "lhar"], ["il", "has"], ["ac", "hat"], ["es", "tic"], ["Il", "has"], ["em", "paco"], ["ta", "das"], ["di", "çam"], ["Ba", "king"], ["oc", "cl"], ["us", "ion"], ["va", "ture"], ["an", "a"], ["ra", "nh"], ["ex", "tra"], ["in", "clu"], ["as", "h"], ["ci", "pa"], ["lo", "w"], ["th", "ro"], ["ar", "cs"], ["se", "con"], ["de", "les"], ["ke", "yframe"], ["pa", "is"], ["re", "fina"], ["te", "ci"], ["Ri", "g"], ["le", "va"], ["Mo", "cap"], ["ví", "de"], ["di", "gita"], ["da", "do"], ["pe", "za"], ["ri", "l"], ["na", "tura"], ["ma", "tic"], ["em", "át"], ["ro", "ta"], ["an", "çar"], ["de", "gra"], ["mi", "rar"], ["ca", "be"], ["ma", "ch"], ["du", "ração"], ["co", "ração"], ["ti", "pa"], ["op", "cional"], ["es", "tru"], ["Es", "tru"], ["Re", "plica"], ["te", "dSto"], ["ra", "ge"], ["le", "vam"], ["sa", "gens"], ["ar", "ma"], ["Re", "tr"], ["yU", "nt"], ["il", "Sa"], ["li", "dar"], ["re", "qu"], ["is", "ições"], ["ta", "bel"], ["er", "ro"], ["Pu", "bli"], ["th", "um"], ["di", "vul"], ["an", "ális"], ["on", "da"], ["su", "pe"], ["ra", "m"], ["mi", "re"], ["at", "las"], ["ta", "ntes"], ["or", "dem"], ["Mu", "itos"], ["mu", "ita"], ["di", "min"], ["In", "sta"], ["pe", "dra"], ["in", "stância"], ["on", "das"], ["le", "xo"], ["di", "dade"], ["ic", "al"], ["fí", "sicas"], ["ic", "idade"], ["in", "dú"], ["st", "ria"], ["re", "cebe"], ["ri", "ga"], ["cl", "ar"], ["pa", "tível"], ["mu", "ito"], ["ex", "pressão"], ["so", "bra"], ["em", "oção"], ["si", "ga"], ["ve", "nce"], ["ca", "mera"], ["Pe", "que"], ["ex", "ag"], ["er", "os"], ["se", "para"], ["ju", "ice"], ["am", "plifica"], ["co", "le"], ["ba", "ter"], ["ca", "nte"], ["le", "gível"], ["ru", "ído"], ["Ne", "tcode"], ["re", "con"], ["ci", "li"], ["la", "tência"], ["ab", "or"], ["da", "gens"], ["ad", "ver"], ["ou", "ro"], ["te", "ge"], ["es", "as"], ["fa", "ti"], ["po", "li"], ["in", "vesti"], ["Ex", "ecu"], ["de", "dica"], ["co", "man"], ["Au", "to"], ["Bu", "ild"], ["ca", "min"], ["má", "ti"], ["nu", "mera"], ["so", "a"], ["re", "gres"], ["da", "no"], ["un", "idade"], ["ju", "ntos"], ["es", "sen"], ["ci", "al"], ["de", "man"], ["en", "do"], ["mi", "pma"], ["ce", "bi"], ["Ge", "ração"], ["al", "eator"], ["la", "da"], ["ge", "on"], ["ad", "jac"], ["pe", "ças"], ["cé", "lu"], ["to", "das"], ["va", "i"], ["co", "la"], ["ps", "ando"], ["op", "ção"], ["vá", "li"], ["co", "er"], ["Il", "uminação"], ["re", "bate"], ["is", "ta"], ["so", "lu"], ["Li", "ghtmap"], ["pr", "é"], ["em", "ite"], ["po", "eira"], ["ma", "gia"], ["en", "che"], ["me", "nte"], ["ar", "tic"], ["pi", "nta"], ["do", "bras"], ["es", "tran"], ["Ph", "ys"], ["ca", "ixas"], ["es", "fe"], ["cá", "ps"], ["ul", "as"], ["Co", "lisão"], ["ra", "gdoll"], ["os", "so"], ["se", "parado"], ["pe", "ti"], ["qu", "estão"], ["ti", "ça"], ["de", "ve"], ["tu", "p"], ["re", "co"], ["av", "an"], ["ça", "dos"], ["lo", "calização"], ["Lo", "calização"], ["su", "por"], ["ac", "ent"], ["es", "pa"], ["ma", "iores"], ["ta", "be"], ["re", "tra"], ["en", "or"], ["ac", "es"], ["re", "move"], ["re", "iras"], ["re", "mape"], ["da", "lto"], ["le", "gen"], ["di", "fic"], ["ul", "dade"], ["am", "pli"], ["pú", "bli"], ["to", "do"], ["li", "ve"], ["Li", "ve"], ["sa", "zô"], ["ba", "talha"], ["Da", "dos"], ["re", "ce"], ["gu", "iam"], ["li", "bra"], ["ne", "iras"], ["in", "flação"], ["té", "dio"], ["fr", "us"], ["mé", "dio"], ["re", "tention"], ["Re", "tention"], ["qu", "antos"], ["no", "vos"], ["do", "mine"], ["de", "talha"], ["le", "tos"], ["at", "é"], ["tf", "óli"], ["ca", "ba"], ["pi", "ntar"], ["ia", "ção"], ["su", "til"], ["so", "b"], ["As", "se"], ["us", "o"], ["Us", "ar"], ["un", "ifica"], ["ra", "dos"], ["ha", "bilidade"], ["co", "lado"], ["ta", "s"], ["su", "ces"], ["to", "ol"], ["im", "por"], ["do", "res"], ["bo", "a"], ["tu", "ma"], ["ré", "plica"], ["Ma", "pas"], ["vi", "áveis"], ["to", "le"], ["re", "uti"], ["ca", "che"], ["bi", "bli"], ["Do", "min"], ["se", "us"], ["pa", "in"], ["ta", "forma"], ["mo", "nt"], ["an", "has"], ["ca", "ver"], ["vo", "xel"], ["AP", "I"], ["ge", "rar"], ["Bo", "a"], ["es", "cal"], ["So", "m"], ["mu", "da"], ["si", "ções"], ["as", "so"], ["mi", "xa"], ["or", "idade"], ["co", "es"], ["il", "ha"], ["fa", "ixas"], ["en", "si"], ["ra", "tivas"], ["tr", "ês"], ["de", "corri"], ["er", "ior"], ["se", "gun"], ["pl", "icar"], ["le", "ntos"], ["Ex", "em"], ["jé", "til"], ["co", "is"], ["hi", "erar"], ["re", "us"], ["de", "limi"], ["al", "in"], ["ha", "da"], ["Do", "is"], ["re", "tâ"], ["ng", "ul"], ["co", "li"], ["põ", "em"], ["es", "quer"], ["xi", "mo"], ["Se", "pare"], ["ad", "ici"], ["pe", "di"], ["ti", "les"], ["Ra", "ycast"], ["ra", "io"], ["po", "nto"], ["co", "brir"], ["Qu", "ase"], ["vi", "zar"], ["gu", "nta"], ["te", "cla"], ["bo", "tão"], ["se", "ja"], ["mo", "mento"], ["ex", "ato"], ["vi", "dade"], ["so", "ma"], ["on", "am"], ["po", "ntos"], ["ua", "is"], ["da", "í"], ["Re", "produ"], ["Im", "pri"], ["va", "nte"], ["ge", "le"], ["mu", "dou"], ["re", "car"], ["Mu", "de"], ["JS", "ON"], ["mi", "gração"], ["nó", "s"], ["es", "cri"], ["tó", "ria"], ["Es", "co"], ["tu", "tor"], ["re", "cri"], ["Le", "ia"], ["do", "cu"], ["me", "nta"], ["te", "ntar"], ["ta", "xa"], ["vi", "lões"], ["mu", "itos"], ["ca", "ra"], ["po", "ol"], ["ve", "itar"], ["ho", "ra"], ["jé", "te"], ["fi", "la"], ["os", "a"], ["co", "leta"], ["li", "xo"], ["cy", "cle"], ["th", "re"], ["re", "ad"], ["up", "da"], ["ac", "ros"], ["ra", "tes"], ["li", "ke"], ["he", "al"], ["re", "usa"], ["id", "s"], ["de", "ep"], ["in", "her"], ["Le", "vel"], ["te", "ach"], ["ch", "al"], ["le", "nge"], ["re", "war"], ["Go", "od"], ["ro", "du"], ["sa", "fe"], ["th", "en"], ["wh", "ere"], ["ge", "t"], ["te", "am"], ["Ar", "tis"], ["mi", "t"], ["sa", "ges"], ["Lo", "ck"], ["ef", "ul"], ["ci", "ble"], ["ou", "t"], ["em", "ula"], ["Ri", "gging"], ["es", "ses"], ["Bo", "as"], ["ar", "cos"], ["Mo", "de"], ["Es", "cre"], ["nú", "cle"], ["to", "ti"], ["gi", "ga"], ["ab", "ando"], ["cu", "ra"], ["er", "ros"], ["ob", "ser"], ["ri", "em"], ["is", "tem"], ["ide", "ntidade"], ["pró", "pria"], ["ent", "ende"], ["por", "tugu"], ["bra", "sile"], ["ace", "ita"], ["ing", "lês"], ["hon", "esta"], ["ide", "ia"], ["ace", "itar"], ["des", "tru"], ["con", "fir"], ["íci", "ta"], ["con", "hece"], ["tec", "nologia"], ["pre", "judica"], ["ter", "mos"], ["pla", "taformas"], ["ile", "gal"], ["des", "sas"], ["lin", "has"], ["cen", "sura"], ["des", "necessária"], ["per", "ten"], ["sal", "var"], ["bus", "car"], ["apa", "gar"], ["sen", "has"], ["pró", "pri"], ["tre", "inado"], ["Hon", "esti"], ["pro", "nta"], ["lli", "gen"], ["run", "s"], ["lan", "gua"], ["hon", "est"], ["per", "for"], ["spe", "ciali"], ["bas", "ics"], ["pra", "ctic"], ["nic", "he"], ["log", "ic"], ["ref", "uses"], ["che", "ats"], ["lim", "pa"], ["des", "per"], ["cur", "vature"], ["bor", "das"], ["pes", "ado"], ["eng", "ana"], ["exi", "be"], ["fus", "os"], ["cos", "turas"], ["Qua", "is"], ["squ", "ash"], ["sta", "ging"], ["fol", "low"], ["dar", "y"], ["pro", "fis"], ["pes", "o"], ["cap", "tura"], ["blo", "que"], ["cap", "ture"], ["gra", "va"], ["sen", "sores"], ["bru", "to"], ["sem", "pre"], ["lim", "peza"], ["des", "liz"], ["val", "entes"], ["que", "brar"], ["ble", "nd"], ["Ble", "nd"], ["par", "âme"], ["tro", "car"], ["Cin", "emát"], ["alc", "ançar"], ["apo", "iar"], ["cli", "pes"], ["con", "dição"], ["Fun", "ction"], ["Ser", "ver"], ["Ser", "vice"], ["ter", "Play"], ["men", "sagens"], ["zen", "amento"], ["per", "siste"], ["ser", "ializa"], ["tra", "te"], ["fal", "lback"], ["des", "cri"], ["bna", "il"], ["Atu", "aliza"], ["fre", "que"], ["per", "feito"], ["Com", "bine"], ["evi", "te"], ["dis", "tantes"], ["ver", "sões"], ["dis", "tância"], ["Per", "to"], ["per", "cebe"], ["Dra", "w"], ["cha", "madas"], ["mal", "has"], ["nci", "ar"], ["Gra", "ma"], ["pos", "tes"], ["cas", "o"], ["gra", "ça"], ["sen", "o"], ["ref", "lexo"], ["pro", "fun"], ["sim", "ulação"], ["ref", "ração"], ["pro", "pri"], ["rea", "ge"], ["Tex", "turas"], ["atu", "al"], ["pas", "sa"], ["com", "patível"], ["lis", "t"], ["mor", "ph"], ["Mor", "ph"], ["sal", "vas"], ["ros", "to"], ["sha", "pes"], ["sor", "riso"], ["nce", "lha"], ["con", "siga"], ["pal", "eta"], ["for", "tes"], ["Con", "sistência"], ["iso", "lado"], ["sen", "sor"], ["sha", "ke"], ["fre", "eze"], ["faz", "em"], ["bri", "lho"], ["tre", "mor"], ["cro", "cante"], ["pis", "ar"], ["pre", "dição"], ["con", "sistência"], ["Jog", "os"], ["Rol", "lback"], ["sim", "ula"], ["fre", "nte"], ["pro", "tege"], ["ass", "inar"], ["def", "esas"], ["Ver", "tical"], ["pro", "va"], ["ass", "ina"], ["pes", "soa"], ["jog", "ar"], ["smo", "ke"], ["tes", "ts"], ["con", "fer"], ["pro", "filing"], ["Pro", "filing"], ["gas", "to"], ["per", "fil"], ["mos", "tra"], ["int", "uição"], ["tex", "ture"], ["Tex", "ture"], ["per", "to"], ["per", "cebi"], ["lin", "es"], ["gen", "era"], ["dun", "geon"], ["til", "har"], ["par", "tir"], ["cri", "ando"], ["son", "das"], ["Cus", "ta"], ["tra", "z"], ["pre", "ço"], ["Cen", "ári"], ["par", "ticle"], ["Par", "ticle"], ["sim", "ular"], ["fog", "o"], ["Par", "âme"], ["cri", "am"], ["Par", "tículas"], ["com", "um"], ["fil", "lrate"], ["ula", "m"], ["Pes", "os"], ["des", "sa"], ["Rag", "doll"], ["cor", "po"], ["mor", "tes"], ["com", "peti"], ["jus", "tiça"], ["gol", "pe"], ["gol", "pes"], ["Jog", "ado"], ["tex", "tos"], ["bal", "ho"], ["bar", "reiras"], ["nis", "mo"], ["ope", "rar"], ["pas", "se"], ["cal", "end"], ["gas", "tos"], ["Tor", "neiras"], ["tra", "ção"], ["Sim", "ule"], ["ses", "são"], ["cus", "ta"], ["por", "tfóli"], ["cin", "co"], ["fin", "ali"], ["tri", "nta"], ["ina", "caba"], ["Tex", "turi"], ["var", "iação"], ["des", "gas"], ["cer", "tos"], ["son", "s"], ["Tra", "bal"], ["aus", "ência"], ["bug", "s"], ["cos", "tuma"], ["est", "údi"], ["ita", "tivo"], ["Fil", "tre"], ["reg", "ião"], ["des", "carregar"], ["liz", "ável"], ["fun", "ções"], ["per", "feitos"], ["ote", "cas"], ["flu", "xo"], ["pla", "taforma"], ["alc", "ance"], ["men", "us"], ["Men", "os"], ["com", "bate"], ["per", "segu"], ["pri", "oridade"], ["emp", "ilha"], ["sin", "cro"], ["des", "ligam"], ["int", "ensi"], ["mes", "ma"], ["che", "fe"], ["tri", "lhas"], ["cic", "lo"], ["pas", "sos"], ["atu", "ali"], ["con", "sta"], ["ant", "erior"], ["Del", "ta"], ["igu", "al"], ["pos", "ica"], ["pro", "jétil"], ["ata", "car"], ["êin", "er"], ["par", "te"], ["qui", "as"], ["ríg", "idas"], ["ver", "sa"], ["eix", "o"], ["cor", "ren"], ["ata", "cando"], ["pró", "ximo"], ["blo", "cos"], ["ima", "gem"], ["edi", "tar"], ["lan", "çar"], ["des", "cobrir"], ["pro", "nto"], ["Ler", "p"], ["sua", "vizar"], ["per", "gunta"], ["nes", "te"], ["bor", "da"], ["eve", "nto"], ["gra", "vidade"], ["Pla", "taformas"], ["pos", "ici"], ["fra", "gmento"], ["vis", "uais"], ["nas", "cem"], ["pro", "ble"], ["cen", "a"], ["Con", "gele"], ["Dan", "o"], ["gra", "vado"], ["ten", "ha"], ["fal", "as"], ["gra", "fo"], ["tor", "es"], ["edi", "tam"], ["his", "tória"], ["Pon", "g"], ["tra", "var"], ["Ter", "mine"], ["gas", "tar"], ["rea", "pro"], ["des", "truir"], ["Pro", "jéte"], ["oci", "osa"], ["ste", "ps"], ["wor", "ld"], ["spe", "ed"], ["sta", "ys"], ["sta", "ble"], ["avo", "ids"], ["ita", "nce"], ["tre", "es"], ["cra", "ft"], ["spa", "ces"], ["int", "rodu"], ["var", "y"], ["tes", "t"], ["ear", "ly"], ["wat", "ch"], ["stu", "ck"], ["his", "tor"], ["com", "mit"], ["mes", "sages"], ["mer", "ge"], ["car", "eful"], ["kee", "p"], ["fro", "m"], ["fin", "o"], ["pro", "toti"], ["Cor", "te"], ["ter", "min"], ["pro", "cura"], ["Ano", "te"], ["tra", "vam"], ["sor", "riem"], ["des", "istem"], ["idio", "ma"], ["dire", "ta"], ["inve", "nta"], ["cons", "ultou"], ["argu", "mentos"], ["expl", "ícita"], ["espe", "cializa"], ["assu", "ntos"], ["inje", "ção"], ["adul", "to"], ["memó", "rias"], ["cons", "enti"], ["esti", "ver"], ["inte", "lligen"], ["answ", "ers"], ["dire", "ct"], ["some", "thing"], ["sour", "ces"], ["know", "s"], ["enti", "ties"], ["hand", "ling"], ["tech", "nolog"], ["inje", "ction"], ["aber", "tura"], ["milh", "ões"], ["rele", "vo"], ["ambi", "ent"], ["occl", "usion"], ["pare", "ce"], ["ranh", "uras"], ["para", "fusos"], ["clás", "sicos"], ["stre", "tch"], ["ante", "cipa"], ["thro", "ugh"], ["sion", "al"], ["teci", "do"], ["víde", "o"], ["mape", "ando"], ["equi", "valentes"], ["ajus", "te"], ["quad", "ril"], ["kine", "matic"], ["rota", "ções"], ["adap", "tar"], ["cabe", "ça"], ["mach", "ine"], ["deri", "vada"], ["tipa", "gem"], ["tura", "r"], ["Star", "terPlay"], ["envi", "a"], ["arma", "zenamento"], ["Retr", "yUnt"], ["ilSa", "fe"], ["limi", "te"], ["requ", "isições"], ["guar", "de"], ["publ", "icar"], ["iter", "e"], ["ícon", "e"], ["thum", "bnail"], ["resp", "onda"], ["supe", "ram"], ["envi", "ada"], ["comb", "inar"], ["envi", "ando"], ["phys", "ical"], ["base", "d"], ["indú", "stria"], ["riga", "do"], ["clar", "os"], ["fone", "ma"], ["limi", "tada"], ["exag", "eros"], ["cole", "tar"], ["técn", "icas"], ["cili", "ação"], ["esco", "lha"], ["abor", "dagens"], ["vali", "dar"], ["fati", "a"], ["poli", "mento"], ["cali", "bra"], ["gran", "de"], ["jane", "la"], ["Auto", "mati"], ["paco", "tes"], ["auto", "máti"], ["comp", "ila"], ["rápi", "do"], ["inte", "gração"], ["abre", "m"], ["medi", "r"], ["mant", "endo"], ["baix", "os"], ["pipe", "lines"], ["célu", "la"], ["come", "ça"], ["cola", "psando"], ["váli", "da"], ["coer", "entes"], ["apar", "ência"], ["ambi", "ente"], ["real", "ista"], ["solu", "ções"], ["baix", "o"], ["está", "ticos"], ["bara", "tos"], ["fuma", "ça"], ["segu", "e"], ["Phys", "ics"], ["esfe", "ras"], ["cáps", "ulas"], ["limi", "tes"], ["Limi", "tes"], ["esti", "rame"], ["acer", "tos"], ["star", "tup"], ["reco", "very"], ["avan", "çados"], ["deci", "dem"], ["idio", "mas"], ["espa", "ço"], ["Come", "çar"], ["tabe", "la"], ["enor", "me"], ["aces", "sibilidade"], ["comp", "leto"], ["ajus", "tável"], ["sazô", "nicos"], ["rece", "ita"], ["equi", "libra"], ["frus", "tração"], ["hard", "core"], ["comp", "rar"], ["comp", "letos"], ["Asse", "t"], ["mode", "los"], ["pack", "s"], ["comp", "rados"], ["tool", "s"], ["Tool", "s"], ["inte", "ira"], ["mode", "ração"], ["tole", "rar"], ["gara", "m"], ["pain", "éis"], ["publ", "icação"], ["mont", "anhas"], ["Tran", "sições"], ["comp", "asso"], ["mixa", "gem"], ["mant", "êm"], ["coes", "o"], ["niza", "das"], ["cres", "ce"], ["técn", "ica"], ["inte", "rativas"], ["repe", "te"], ["comp", "utadores"], ["rápi", "dos"], ["Exem", "plo"], ["cont", "êiner"], ["cois", "a"], ["Tran", "sforma"], ["Spri", "te"], ["reus", "ar"], ["sign", "ifica"], ["tado", "ra"], ["alin", "hada"], ["retâ", "ngul"], ["coli", "dem"], ["dire", "ita"], ["bara", "to"], ["pres", "as"], ["pedi", "r"], ["tile", "map"], ["Tile", "map"], ["acer", "ta"], ["line", "ar"], ["inte", "gra"], ["poss", "ível"], ["rele", "vante"], ["Vali", "de"], ["vira", "m"], ["come", "çar"], ["Esco", "lha"], ["docu", "menta"], ["pool", "ing"], ["Pool", "ing"], ["repe", "ats"], ["thre", "e"], ["upda", "te"], ["scre", "en"], ["obje", "ct"], ["move", "ment"], ["heal", "th"], ["draw", "ing"], ["Enti", "ties"], ["comb", "ine"], ["chal", "lenge"], ["safe", "ly"], ["Play", "test"], ["play", "ers"], ["team", "s"], ["chan", "ge"], ["chan", "ges"], ["Redu", "za"], ["Mode", "lagem"], ["esco", "po"], ["giga", "nte"], ["técn", "ico"], ["expl", "icar"], ["execu", "tada"], ["conte", "xto"], ["resul", "tados"], ["execu", "tou"], ["recus", "ar"], ["inter", "net"], ["regis", "tra"], ["token", "s"], ["segre", "dos"], ["insta", "lado"], ["proje", "ct"], ["resul", "ts"], ["proje", "cts"], ["clara", "s"], ["algun", "s"], ["achat", "á"], ["estic", "ar"], ["sobre", "posição"], ["trans", "fere"], ["extra", "s"], ["moder", "nos"], ["inclu", "em"], ["secon", "dary"], ["anima", "dor"], ["corri", "gir"], ["targe", "tar"], ["inver", "se"], ["inver", "sa"], ["degra", "u"], ["anima", "r"], ["moder", "nas"], ["estru", "turar"], ["Estru", "ture"], ["confi", "e"], ["autor", "idade"], ["entra", "das"], ["senti", "dos"], ["tabel", "as"], ["Publi", "que"], ["divul", "gar"], ["troca", "das"], ["frame", "rate"], ["desen", "ho"], ["muita", "s"], ["insta", "nciar"], ["dimin", "ui"], ["insta", "ncing"], ["Insta", "ncing"], ["pedra", "s"], ["anima", "da"], ["edade", "s"], ["metal", "icidade"], ["check", "list"], ["sobra", "ncelha"], ["acele", "ração"], ["Peque", "nos"], ["impac", "to"], ["recon", "ciliação"], ["adver", "sário"], ["imedi", "ata"], ["detec", "tar"], ["produ", "ção"], ["Execu", "ção"], ["coman", "do"], ["camin", "ho"], ["apare", "cem"], ["essen", "cial"], ["aloca", "ções"], ["Otimi", "ze"], ["deman", "da"], ["mipma", "ps"], ["terre", "nos"], ["adjac", "ência"], ["dinâm", "icas"], ["dinâm", "icos"], ["artic", "ulam"], ["pinta", "dos"], ["entre", "ga"], ["impac", "tos"], ["supor", "te"], ["acent", "os"], ["forma", "tos"], ["retra", "balho"], ["dalto", "nismo"], ["legen", "das"], ["dific", "uldade"], ["ampli", "a"], ["públi", "co"], ["comun", "idade"], ["defin", "ir"], ["prime", "ira"], ["defin", "em"], ["Melho", "rar"], ["lugar", "es"], ["difer", "ente"], ["artis", "tas"], ["suces", "so"], ["inter", "nas"], ["impor", "tadores"], ["multi", "player"], ["autor", "itativo"], ["carre", "garam"], ["reuti", "lizável"], ["bibli", "otecas"]]}