{"version": "bpe_v1", "vocab": {"<pad>": 0, "<unk>": 1, "<bos>": 2, "<eos>": 3, "<sep>": 4, "\n": 5, " ": 6, "'": 7, "(": 8, ")": 9, "*": 10, "+": 11, ",": 12, "-": 13, ".": 14, "0": 15, "1": 16, "2": 17, "3": 18, "4": 19, "5": 20, "6": 21, "7": 22, "8": 23, "9": 24, ":": 25, ";": 26, "=": 27, "?": 28, "A": 29, "B": 30, "C": 31, "D": 32, "E": 33, "F": 34, "G": 35, "H": 36, "I": 37, "J": 38, "K": 39, "L": 40, "M": 41, "N": 42, "O": 43, "P": 44, "Q": 45, "R": 46, "S": 47, "T": 48, "U": 49, "V": 50, "W": 51, "X": 52, "_": 53, "a": 54, "b": 55, "c": 56, "d": 57, "e": 58, "f": 59, "g": 60, "h": 61, "i": 62, "j": 63, "k": 64, "l": 65, "m": 66, "n": 67, "o": 68, "p": 69, "q": 70, "r": 71, "s": 72, "t": 73, "u": 74, "v": 75, "w": 76, "x": 77, "y": 78, "z": 79, "Á": 80, "É": 81, "à": 82, "á": 83, "â": 84, "ã": 85, "ç": 86, "é": 87, "ê": 88, "í": 89, "ó": 90, "ô": 91, "õ": 92, "ú": 93, "—": 94, "de": 95, "ra": 96, "es": 97, "nt": 98, "TA": 99, "co": 100, "os": 101, "qu": 102, "ma": 103, "er": 104, "do": 105, "ar": 106, "da": 107, "is": 108, "em": 109, "ão": 110, "in": 111, "\n\n": 112, "ER": 113, "que": 114, "re": 115, "me": 116, "ta": 117, "ES": 118, "al": 119, "PER": 120, "GU": 121, "NTA": 122, "RES": 123, "PO": 124, "STA": 125, "GUNTA": 126, "POSTA": 127, "PERGUNTA": 128, "RESPOSTA": 129, "or": 130, "as": 131, "ro": 132, "com": 133, "te": 134, "ic": 135, "ção": 136, "ve": 137, "to": 138, "og": 139, "ri": 140, "pa": 141, "an": 142, "on": 143, "en": 144, "ti": 145, "jog": 146, "la": 147, "nto": 148, "di": 149, "po": 150, "le": 151, "lo": 152, "ent": 153, "us": 154, "ha": 155, "mo": 156, "pro": 157, "para": 158, "li": 159, "ci": 160, "ica": 161, "des": 162, "vi": 163, "tu": 164, "um": 165, "por": 166, "ce": 167, "ua": 168, "ca": 169, "no": 170, "se": 171, "jogo": 172, "mais": 173, "so": 174, "pe": 175, "si": 176, "ing": 177, "un": 178, "dade": 179, "res": 180, "ver": 181, "dos": 182, "nos": 183, "Qua": 184, "tra": 185, "per": 186, "tes": 187, "mi": 188, "mento": 189, "Quanto": 190, "ga": 191, "nte": 192, "za": 193, "for": 194, "con": 195, "uma": 196, "ba": 197, "he": 198, "pos": 199, "gra": 200, "ob": 201, "menos": 202, "ul": 203, "pl": 204, "ima": 205, "tura": 206, "ões": 207, "ex": 208, "ol": 209, "par": 210, "ine": 211, "ter": 212, "sa": 213, "vez": 214, "tos": 215, "du": 216, "ia": 217, "são": 218, "ado": 219, "je": 220, "ge": 221, "gem": 222, "tem": 223, "ça": 224, "ali": 225, "gu": 226, "cont": 227, "forma": 228, "go": 229, "fa": 230, "ções": 231, "cri": 232, "anima": 233, "ona": 234, "tar": 235, "ada": 236, "pi": 237, "ando": 238, "sem": 239, "ck": 240, "ou": 241, "tr": 242, "Co": 243, "não": 244, "ts": 245, "pas": 246, "tex": 247, "pre": 248, "fe": 249, "der": 250, "cor": 251, "ho": 252, "cu": 253, "ári": 254, "im": 255, "lha": 256, "va": 257, "na": 258, "vel": 259, "comp": 260, "animação": 261, "vezes": 262, "ser": 263, "bra": 264, "fer": 265, "op": 266, "ad": 267, "car": 268, "esta": 269, "das": 270, "ina": 271, "jogado": 272, "fica": 273, "ódi": 274, "ui": 275, "ant": 276, "ódigo": 277, "como": 278, "ente": 279, "cos": 280, "bi": 281, "código": 282, "fi": 283, "int": 284, "bo": 285, "pla": 286, "el": 287, "jogos": 288, "pers": 289, "contro": 290, "AR": 291, "KH": 292, "ARKH": 293, "ARKHER": 294, "pu": 295, "tic": 296, "ch": 297, "vo": 298, "am": 299, "lu": 300, "ed": 301, "obje": 302, "nas": 303, "nci": 304, "tor": 305, "fí": 306, "log": 307, "che": 308, "sis": 309, "back": 310, "game": 311, "ens": 312, "mode": 313, "persona": 314, "jogador": 315, "be": 316, "sica": 317, "ju": 318, "ig": 319, "cal": 320, "Rob": 321, "ici": 322, "rame": 323, "eng": 324, "lox": 325, "produ": 326, "Roblox": 327, "su": 328, "óri": 329, "ao": 330, "mes": 331, "sos": 332, "ix": 333, "quando": 334, "nta": 335, "qui": 336, "mas": 337, "sim": 338, "plus": 339, "porta": 340, "tempo": 341, "inte": 342, "pri": 343, "só": 344, "sta": 345, "jus": 346, "ase": 347, "dor": 348, "isa": 349, "ntos": 350, "vimento": 351, "and": 352, "Como": 353, "tran": 354, "hat": 355, "idade": 356, "line": 357, "ces": 358, "tre": 359, "Cada": 360, "les": 361, "ir": 362, "lis": 363, "min": 364, "fin": 365, "loop": 366, "zação": 367, "guar": 368, "malha": 369, "ram": 370, "ncia": 371, "ário": 372, "prec": 373, "inter": 374, "desen": 375, "textura": 376, "entes": 377, "siste": 378, "personagem": 379, "ON": 380, "pr": 381, "ug": 382, "ição": 383, "conte": 384, "tam": 385, "velo": 386, "ign": 387, "quad": 388, "rar": 389, "mater": 390, "ória": 391, "pare": 392, "entre": 393, "antes": 394, "guarda": 395, "QU": 396, "TI": 397, "What": 398, "AN": 399, "SW": 400, "QUES": 401, "TION": 402, "ANSW": 403, "QUESTION": 404, "ANSWER": 405, "Ela": 406, "ne": 407, "vol": 408, "cer": 409, "3D": 410, "lh": 411, "pes": 412, "tro": 413, "val": 414, "cli": 415, "dra": 416, "ível": 417, "câ": 418, "rá": 419, "mun": 420, "bal": 421, "mer": 422, "dio": 423, "est": 424, "física": 425, "pois": 426, "cidade": 427, "peque": 428, "fei": 429, "hader": 430, "quer": 431, "servi": 432, "logia": 433, "crip": 434, "design": 435, "engine": 436, "objetos": 437, "estado": 438, "it": 439, "proje": 440, "ência": 441, "fici": 442, "au": 443, "Um": 444, "vali": 445, "mem": 446, "var": 447, "gar": 448, "ps": 449, "ld": 450, "vis": 451, "fun": 452, "evi": 453, "difer": 454, "isso": 455, "pologia": 456, "tal": 457, "movimento": 458, "ração": 459, "roda": 460, "mera": 461, "qual": 462, "real": 463, "time": 464, "posição": 465, "cliente": 466, "entra": 467, "draw": 468, "precisa": 469, "velocidade": 470, "servidor": 471, "12": 472, "It": 473, "ys": 474, "Re": 475, "ato": 476, "ros": 477, "ll": 478, "ável": 479, "zar": 480, "ira": 481, "onde": 482, "unca": 483, "arqui": 484, "bili": 485, "esti": 486, "uild": 487, "topologia": 488, "sion": 489, "depois": 490, "ice": 491, "regra": 492, "pou": 493, "veis": 494, "memória": 495, "qualquer": 496, "10": 497, "ntes": 498, "iza": 499, "ace": 500, "nunca": 501, "ifica": 502, "cus": 503, "cl": 504, "the": 505, "th": 506, "ac": 507, "build": 508, "eta": 509, "íg": 510, "gan": 511, "ás": 512, "AA": 513, "gens": 514, "cas": 515, "shader": 516, "cul": 517, "De": 518, "ço": 519, "nú": 520, "end": 521, "dire": 522, "ntas": 523, "sob": 524, "vent": 525, "pipe": 526, "ular": 527, "vira": 528, "map": 529, "som": 530, "Com": 531, "ores": 532, "plica": 533, "leto": 534, "ossos": 535, "usa": 536, "emo": 537, "limi": 538, "edback": 539, "iais": 540, "bara": 541, "dem": 542, "arte": 543, "diver": 544, "teste": 545, "comun": 546, "mundo": 547, "cripts": 548, "compon": 549, "trans": 550, "materiais": 551, "11": 552, "fo": 553, "iro": 554, "aju": 555, "údo": 556, "ling": 557, "bug": 558, "UV": 559, "str": 560, "líg": 561, "bem": 562, "nor": 563, "ke": 564, "frame": 565, "pé": 566, "ajus": 567, "gres": 568, "ata": 569, "cha": 570, "cre": 571, "ial": 572, "pres": 573, "ime": 574, "té": 575, "íveis": 576, "cali": 577, "Tes": 578, "eco": 579, "har": 580, "ble": 581, "nica": 582, "tado": 583, "dades": 584, "put": 585, "taforma": 586, "insta": 587, "importa": 588, "tion": 589, "code": 590, "políg": 591, "onos": 592, "faz": 593, "cada": 594, "cula": 595, "dados": 596, "feedback": 597, "ist": 598, "câmera": 599, "asse": 600, "man": 601, "rápi": 602, "númer": 603, "confi": 604, "sobre": 605, "ajuda": 606, "resol": 607, "adap": 608, "evita": 609, "cria": 610, "econo": 611, "carre": 612, "texto": 613, "play": 614, "ficial": 615, "loops": 616, "modelo": 617, "pipeline": 618, "conteúdo": 619, "polígonos": 620, "regras": 621, "pequeno": 622, "controles": 623, "\n\n\n": 624, "projeto": 625, "dr": 626, "ita": 627, "cla": 628, "vos": 629, "ação": 630, "plo": 631, "lin": 632, "lan": 633, "cle": 634, "gun": 635, "As": 636, "ual": 637, "fina": 638, "gi": 639, "Em": 640, "pen": 641, "Ser": 642, "amento": 643, "il": 644, "tri": 645, "Ver": 646, "xa": 647, "imi": 648, "padr": 649, "sibili": 650, "input": 651, "ten": 652, "are": 653, "leta": 654, "lagem": 655, "UVs": 656, "mapas": 657, "rig": 658, "ane": 659, "mal": 660, "luz": 661, "cama": 662, "esque": 663, "onal": 664, "dois": 665, "cedo": 666, "timi": 667, "lação": 668, "icas": 669, "pac": 670, "esco": 671, "camin": 672, "mant": 673, "segu": 674, "box": 675, "colis": 676, "resp": 677, "enti": 678, "trapa": 679, "plataforma": 680, "caro": 681, "funci": 682, "poses": 683, "progres": 684, "alidade": 685, "poucos": 686, "mesmo": 687, "tical": 688, "final": 689, "acele": 690, "feitos": 691, "imedi": 692, "poss": 693, "progra": 694, "cala": 695, "padrão": 696, "valida": 697, "adapta": 698, "estados": 699, "esqueleto": 700, "diferentes": 701, "sistema": 702, "entrada": 703, "interfa": 704, "colisão": 705, "controle": 706, "13": 707, "AI": 708, "base": 709, "sua": 710, "uário": 711, "hi": 712, "pó": 713, "nde": 714, "ém": 715, "sen": 716, "Se": 717, "ct": 718, "of": 719, "ph": 720, "ito": 721, "xel": 722, "dar": 723, "ming": 724, "Mo": 725, "ru": 726, "equi": 727, "çar": 728, "utura": 729, "ló": 730, "gica": 731, "fal": 732, "Pa": 733, "lon": 734, "zir": 735, "ly": 736, "PB": 737, "óti": 738, "ves": 739, "fic": 740, "eve": 741, "mu": 742, "cen": 743, "Es": 744, "cic": 745, "lta": 746, "lig": 747, "pró": 748, "autor": 749, "def": 750, "usuário": 751, "sabe": 752, "exi": 753, "tros": 754, "prin": 755, "explo": 756, "invent": 757, "ers": 758, "ics": 759, "ras": 760, "uir": 761, "organ": 762, "leve": 763, "mapa": 764, "super": 765, "fíci": 766, "lhas": 767, "alta": 768, "cur": 769, "ture": 770, "ples": 771, "faci": 772, "chão": 773, "tudo": 774, "lógica": 775, "toda": 776, "save": 777, "qualidade": 778, "mobi": 779, "ista": 780, "pela": 781, "PBR": 782, "rea": 783, "one": 784, "nti": 785, "poli": 786, "toma": 787, "zados": 788, "aming": 789, "art": 790, "come": 791, "usam": 792, "vida": 793, "mente": 794, "ixas": 795, "data": 796, "ance": 797, "move": 798, "escala": 799, "pool": 800, "inimi": 801, "delta": 802, "resul": 803, "verifica": 804, "ferrame": 805, "criar": 806, "posta": 807, "normal": 808, "simples": 809, "visual": 810, "comb": 811, "targe": 812, "calcula": 813, "icação": 814, "parti": 815, "troca": 816, "versão": 817, "check": 818, "vertical": 819, "valores": 820, "treaming": 821, "confor": 822, "ários": 823, "trabal": 824, "passo": 825, "ciclo": 826, "desa": 827, "passos": 828, "Teste": 829, "modelagem": 830, "transi": 831, "camadas": 832, "mobile": 833, "objeto": 834, "tomati": 835, "quadros": 836, "escopo": 837, "desenvol": 838, "arquivo": 839, "superfíci": 840, "funciona": 841, "interpo": 842, "desenha": 843, "economi": 844, "sistemas": 845, "sibilidade": 846, "jogadores": 847, "program": 848, "interface": 849, "17": 850, "16": 851, "30": 852, "gera": 853, "ide": 854, "ecu": 855, "oficial": 856, "fra": 857, "ela": 858, "ações": 859, "Uma": 860, "vas": 861, "ças": 862, "scripts": 863, "has": 864, "gua": 865, "nder": 866, "ction": 867, "ab": 868, "king": 869, "ging": 870, "las": 871, "ele": 872, "Os": 873, "An": 874, "itura": 875, "blo": 876, "tmo": 877, "bl": 878, "IK": 879, "apo": 880, "má": 881, "Scripts": 882, "Remo": 883, "Pla": 884, "vê": 885, "otimi": 886, "at": 887, "grá": 888, "mui": 889, "vé": 890, "rtic": 891, "nce": 892, "jar": 893, "ze": 894, "tóti": 895, "pli": 896, "fase": 897, "cem": 898, "gas": 899, "Is": 900, "ndes": 901, "ave": 902, "ni": 903, "cin": 904, "To": 905, "edi": 906, "jé": 907, "ep": 908, "bu": 909, "ffer": 910, "ler": 911, "35": 912, "15": 913, "hipó": 914, "usada": 915, "ines": 916, "rização": 917, "online": 918, "rac": 919, "chan": 920, "retopologia": 921, "deforma": 922, "liga": 923, "paco": 924, "detal": 925, "pixel": 926, "ran": 927, "clás": 928, "Anima": 929, "leitura": 930, "dura": 931, "ritmo": 932, "cional": 933, "hora": 934, "eles": 935, "estr": 936, "iste": 937, "icar": 938, "reten": 939, "çamento": 940, "Para": 941, "repe": 942, "ulti": 943, "quase": 944, "escul": 945, "vértic": 946, "plane": 947, "Defina": 948, "separa": 949, "imposs": 950, "til": 951, "reprodu": 952, "alo": 953, "Isso": 954, "quem": 955, "depu": 956, "col": 957, "lap": 958, "umina": 959, "deci": 960, "Come": 961, "uldade": 962, "talha": 963, "defin": 964, "tivo": 965, "reno": 966, "ere": 967, "tido": 968, "hada": 969, "arcos": 970, "vidade": 971, "segun": 972, "buffer": 973, "recomp": 974, "mecâ": 975, "siona": 976, "comporta": 977, "própri": 978, "define": 979, "tese": 980, "exigem": 981, "aliza": 982, "engines": 983, "conce": 984, "corri": 985, "quebra": 986, "feito": 987, "chega": 988, "call": 989, "gráfica": 990, "passa": 991, "sist": 992, "protóti": 993, "jogável": 994, "testes": 995, "grandes": 996, "hard": 997, "Serve": 998, "cessibilidade": 999, "ficuldade": 1000, "eventos": 1001, "prime": 1002, "vale": 1003, "trava": 1004, "entidade": 1005, "backend": 1006, "responde": 1007, "hipótese": 1008, "parecer": 1009, "completa": 1010, "parece": 1011, "clássi": 1012, "Remote": 1013, "estrutura": 1014, "estilo": 1015, "polimento": 1016, "rápido": 1017, "quadro": 1018, "inteiro": 1019, "calização": 1020, "barato": 1021, "mecânica": 1022, "produto": 1023, "organiza": 1024, "detalhe": 1025, "resolve": 1026, "trapaça": 1027, "configu": 1028, "retenção": 1029, "transpar": 1030, "planejar": 1031, "imediato": 1032, "produção": 1033, "builds": 1034, "carrega": 1035, "uminação": 1036, "formas": 1037, "divertido": 1038, "número": 1039, "component": 1040, "conforme": 1041, "progresso": 1042, "texturas": 1043, "personagens": 1044, "comportamento": 1045, "desenvolvimento": 1046, "14": 1047, "54": 1048, "31": 1049, "27": 1050, "29": 1051, "20": 1052, "43": 1053, "24": 1054, "pelo": 1055, "fontes": 1056, "ês": 1057, "hon": 1058, "Ações": 1059, "pal": 1060, "its": 1061, "mos": 1062, "bus": 1063, "The": 1064, "éis": 1065, "bri": 1066, "ução": 1067, "bor": 1068, "fis": 1069, "mã": 1070, "zen": 1071, "aplica": 1072, "mis": 1073, "ín": 1074, "pular": 1075, "Lua": 1076, "Event": 1077, "Sto": 1078, "Data": 1079, "ições": 1080, "lback": 1081, "bli": 1082, "fre": 1083, "LO": 1084, "apar": 1085, "ância": 1086, "Per": 1087, "multi": 1088, "água": 1089, "Shader": 1090, "xo": 1091, "Tex": 1092, "atu": 1093, "mor": 1094, "sor": 1095, "sl": 1096, "tí": 1097, "efeitos": 1098, "tcode": 1099, "Jog": 1100, "ula": 1101, "sente": 1102, "Ex": 1103, "Pro": 1104, "PU": 1105, "ware": 1106, "gen": 1107, "ie": 1108, "fas": 1109, "níveis": 1110, "ht": 1111, "ite": 1112, "over": 1113, "acer": 1114, "av": 1115, "Lo": 1116, "udio": 1117, "Acessibilidade": 1118, "remo": 1119, "fr": 1120, "ses": 1121, "efici": 1122, "No": 1123, "Streaming": 1124, "Ena": 1125, "ote": 1126, "ços": 1127, "Stu": 1128, "UI": 1129, "Bo": 1130, "Men": 1131, "êm": 1132, "zer": 1133, "FK": 1134, "hist": 1135, "vem": 1136, "ndo": 1137, "EC": 1138, "gos": 1139, "eix": 1140, "ycas": 1141, "19": 1142, "48": 1143, "execu": 1144, "tada": 1145, "algo": 1146, "diz": 1147, "enci": 1148, "dou": 1149, "mentos": 1150, "reg": 1151, "tivas": 1152, "expl": 1153, "outros": 1154, "tec": 1155, "neces": 1156, "lado": 1157, "phys": 1158, "tech": 1159, "debug": 1160, "ref": 1161, "baking": 1162, "exporta": 1163, "lim": 1164, "extra": 1165, "moder": 1166, "inc": 1167, "ollo": 1168, "thro": 1169, "ugh": 1170, "timing": 1171, "AAA": 1172, "cap": 1173, "cedura": 1174, "pés": 1175, "mãos": 1176, "leva": 1177, "digi": 1178, "alvo": 1179, "cabe": 1180, "máqu": 1181, "empen": 1182, "Modu": 1183, "leScripts": 1184, "envi": 1185, "men": 1186, "publ": 1187, "tela": 1188, "LOD": 1189, "elho": 1190, "cebe": 1191, "rate": 1192, "Redu": 1193, "inar": 1194, "slice": 1195, "toque": 1196, "impac": 1197, "demais": 1198, "junto": 1199, "téc": 1200, "luta": 1201, "automati": 1202, "soa": 1203, "mede": 1204, "baix": 1205, "seed": 1206, "fixa": 1207, "iluminação": 1208, "htmap": 1209, "taman": 1210, "juntas": 1211, "lugar": 1212, "itbox": 1213, "tiça": 1214, "ixa": 1215, "localização": 1216, "opções": 1217, "dificuldade": 1218, "batalha": 1219, "frus": 1220, "pack": 1221, "cache": 1222, "muda": 1223, "faixas": 1224, "bom": 1225, "cara": 1226, "tiva": 1227, "ECS": 1228, "jéte": 1229, "times": 1230, "tocar": 1231, "ard": 1232, "clara": 1233, "estão": 1234, "cons": 1235, "destr": 1236, "ária": 1237, "resposta": 1238, "etapa": 1239, "constr": 1240, "bras": 1241, "profis": 1242, "nasce": 1243, "procedura": 1244, "sempre": 1245, "propor": 1246, "corte": 1247, "desempen": 1248, "comparti": 1249, "Play": 1250, "trate": 1251, "perder": 1252, "compa": 1253, "lançamento": 1254, "ganha": 1255, "placa": 1256, "creve": 1257, "list": 1258, "resto": 1259, "partí": 1260, "culas": 1261, "plifica": 1262, "linha": 1263, "pessoa": 1264, "está": 1265, "mundos": 1266, "fases": 1267, "entos": 1268, "longo": 1269, "justiça": 1270, "very": 1271, "string": 1272, "tração": 1273, "custa": 1274, "props": 1275, "varia": 1276, "Enable": 1277, "partes": 1278, "torna": 1279, "Studio": 1280, "terreno": 1281, "permi": 1282, "Menos": 1283, "entram": 1284, "inten": 1285, "zero": 1286, "então": 1287, "braço": 1288, "chave": 1289, "pacing": 1290, "racter": 1291, "ensina": 1292, "torial": 1293, "test": 1294, "versiona": 1295, "commi": 1296, "entidades": 1297, "princi": 1298, "contato": 1299, "ollow": 1300, "through": 1301, "sional": 1302, "combina": 1303, "digital": 1304, "ajuste": 1305, "máquina": 1306, "cript": 1307, "rodam": 1308, "ModuleScripts": 1309, "limite": 1310, "barata": 1311, "assets": 1312, "pressão": 1313, "equipe": 1314, "calibra": 1315, "integra": 1316, "hardware": 1317, "depurar": 1318, "asset": 1319, "limites": 1320, "precis": 1321, "frustração": 1322, "Comece": 1323, "inteira": 1324, "player": 1325, "pooling": 1326, "jéteis": 1327, "facili": 1328, "ycast": 1329, "autoriza": 1330, "contex": 1331, "arquivos": 1332, "diferenci": 1333, "exploits": 1334, "conceito": 1335, "resolução": 1336, "Animação": 1337, "corrige": 1338, "resultado": 1339, "comunicação": 1340, "Events": 1341, "material": 1342, "escultura": 1343, "checklist": 1344, "transforma": 1345, "tamanho": 1346, "números": 1347, "acelera": 1348, "diversão": 1349, "carregar": 1350, "caminhada": 1351, "inimigos": 1352, "segundos": 1353, "construir": 1354, "profissional": 1355, "transições": 1356, "RemoteEvents": 1357, "clássico": 1358, "impossíveis": 1359, "inventário": 1360, "strings": 1361, "trabalho": 1362, "Enabled": 1363, "deformação": 1364, "protótipo": 1365, "interpolação": 1366, "economia": 1367, "ferramentas": 1368, "configura": 1369, "programmer": 1370, "desempenho": 1371, "automatizados": 1372, "superfície": 1373, "StreamingEnabled": 1374, "33": 1375, "46": 1376, "68": 1377, "23": 1378, "25": 1379, "40": 1380, "18": 1381, "51": 1382, "81": 1383, "28": 1384, "37": 1385, "21": 1386, "44": 1387, "Fa": 1388, "mé": 1389, "97": 1390, "80": 1391, "41": 1392, "26": 1393, "34": 1394, "idio": 1395, "Qu": 1396, "gestão": 1397, "itar": 1398, "aconte": 1399, "Fer": 1400, "bém": 1401, "dica": 1402, "ile": 1403, "nem": 1404, "sária": 1405, "sal": 1406, "gre": 1407, "sw": 1408, "kno": 1409, "cts": 1410, "spe": 1411, "zes": 1412, "bas": 1413, "ats": 1414, "2D": 1415, "cí": 1416, "follow": 1417, "âne": 1418, "Rig": 1419, "ator": 1420, "sens": 1421, "ting": 1422, "âme": 1423, "rer": 1424, "tica": 1425, "mão": 1426, "script": 1427, "lhora": 1428, "vice": 1429, "Mant": 1430, "Use": 1431, "bel": 1432, "ializa": 1433, "lular": 1434, "acompa": 1435, "ênci": 1436, "Me": 1437, "nível": 1438, "sões": 1439, "dist": 1440, "nc": 1441, "In": 1442, "vári": 1443, "apro": 1444, "xima": 1445, "rug": 1446, "sha": 1447, "ume": 1448, "ueta": 1449, "Con": 1450, "Ga": 1451, "ag": 1452, "Ju": 1453, "ído": 1454, "nicas": 1455, "Anti": 1456, "útil": 1457, "Au": 1458, "GPU": 1459, "galo": 1460, "Otimi": 1461, "streaming": 1462, "era": 1463, "vá": 1464, "glo": 1465, "son": 1466, "din": 1467, "sys": 1468, "Par": 1469, "gia": 1470, "Over": 1471, "Ele": 1472, "kin": 1473, "ned": 1474, "hitbox": 1475, "gol": 1476, "Bal": 1477, "áudio": 1478, "iores": 1479, "my": 1480, "Sim": 1481, "D1": 1482, "apre": 1483, "mine": 1484, "até": 1485, "fim": 1486, "los": 1487, "sar": 1488, "áveis": 1489, "Eles": 1490, "Do": 1491, "gere": 1492, "mú": 1493, "Tran": 1494, "cres": 1495, "ybox": 1496, "aos": 1497, "hos": 1498, "ios": 1499, "io": 1500, "zin": 1501, "spacing": 1502, "xi": 1503, "sus": 1504, "Po": 1505, "más": 1506, "Siste": 1507, "iente": 1508, "gn": 1509, "uém": 1510, "ber": 1511, "eep": 1512, "yote": 1513, "pun": 1514, "ido": 1515, "Sem": 1516, "têm": 1517, "jamento": 1518, "Di": 1519, "única": 1520, "centra": 1521, "Ter": 1522, "Log": 1523, "fia": 1524, "ja": 1525, "Save": 1526, "tão": 1527, "Fí": 1528, "BB": 1529, "álog": 1530, "Le": 1531, "every": 1532, "sma": 1533, "wit": 1534, "his": 1535, "eps": 1536, "ges": 1537, "95": 1538, "83": 1539, "58": 1540, "70": 1541, "47": 1542, "92": 1543, "42": 1544, "32": 1545, "22": 1546, "arti": 1547, "seu": 1548, "ende": 1549, "tou": 1550, "fato": 1551, "sugestão": 1552, "pode": 1553, "rende": 1554, "boas": 1555, "foco": 1556, "dev": 1557, "inje": 1558, "expor": 1559, "informa": 1560, "clare": 1561, "not": 1562, "some": 1563, "action": 1564, "ties": 1565, "render": 1566, "games": 1567, "mechan": 1568, "uses": 1569, "cobra": 1570, "anéis": 1571, "milh": 1572, "algun": 1573, "tadas": 1574, "çam": 1575, "ambi": 1576, "Assim": 1577, "cípi": 1578, "ntâne": 1579, "artes": 1580, "anal": 1581, "dezen": 1582, "dado": 1583, "liz": 1584, "outro": 1585, "mape": 1586, "ril": 1587, "ínu": 1588, "natura": 1589, "inver": 1590, "rota": 1591, "alc": 1592, "degra": 1593, "dição": 1594, "uagem": 1595, "opcional": 1596, "melhora": 1597, "enha": 1598, "sagens": 1599, "inda": 1600, "tabel": 1601, "celular": 1602, "use": 1603, "faça": 1604, "Meça": 1605, "geram": 1606, "dimin": 1607, "ncing": 1608, "tidos": 1609, "albe": 1610, "metal": 1611, "osidade": 1612, "recebe": 1613, "riga": 1614, "expressão": 1615, "iso": 1616, "indi": 1617, "silh": 1618, "Faça": 1619, "feel": 1620, "Game": 1621, "eros": 1622, "Juice": 1623, "trem": 1624, "ruído": 1625, "netcode": 1626, "roll": 1627, "tiro": 1628, "detec": 1629, "ass": 1630, "head": 1631, "coman": 1632, "Automati": 1633, "assim": 1634, "gara": 1635, "unidade": 1636, "essen": 1637, "cial": 1638, "filing": 1639, "dir": 1640, "endo": 1641, "redu": 1642, "bida": 1643, "váli": 1644, "bate": 1645, "elem": 1646, "pinta": 1647, "caixas": 1648, "doll": 1649, "peti": 1650, "tivos": 1651, "caixa": 1652, "supor": 1653, "retrabalho": 1654, "enor": 1655, "todo": 1656, "ops": 1657, "recur": 1658, "core": 1659, "rete": 1660, "quant": 1661, "turi": 1662, "ntar": 1663, "ols": 1664, "dores": 1665, "boa": 1666, "tuma": 1667, "retorna": 1668, "rain": 1669, "telas": 1670, "música": 1671, "sidade": 1672, "depen": 1673, "aresta": 1674, "Depois": 1675, "pedem": 1676, "sozin": 1677, "inua": 1678, "vende": 1679, "alter": 1680, "adici": 1681, "toon": 1682, "lução": 1683, "trás": 1684, "oriente": 1685, "iros": 1686, "sign": 1687, "copla": 1688, "avisa": 1689, "coleta": 1690, "quista": 1691, "fix": 1692, "tep": 1693, "ulando": 1694, "vizar": 1695, "ller": 1696, "milis": 1697, "Todo": 1698, "ceira": 1699, "assist": 1700, "tividade": 1701, "paga": 1702, "enga": 1703, "meta": 1704, "ensa": 1705, "board": 1706, "tutorial": 1707, "tização": 1708, "obser": 1709, "ano": 1710, "sema": 1711, "mudou": 1712, "viram": 1713, "momento": 1714, "relo": 1715, "tifica": 1716, "robus": 1717, "migra": 1718, "nico": 1719, "rom": 1720, "fio": 1721, "botão": 1722, "mover": 1723, "Física": 1724, "AABB": 1725, "menor": 1726, "tile": 1727, "raycast": 1728, "diálog": 1729, "keeps": 1730, "level": 1731, "ligência": 1732, "frase": 1733, "honesta": 1734, "verdade": 1735, "Ferrame": 1736, "regis": 1737, "também": 1738, "porque": 1739, "clear": 1740, "know": 1741, "clean": 1742, "etapas": 1743, "claras": 1744, "rigging": 1745, "version": 1746, "brir": 1747, "cortar": 1748, "ticar": 1749, "perdi": 1750, "fere": 1751, "sombras": 1752, "pose": 1753, "peso": 1754, "bloque": 1755, "tree": 1756, "mistura": 1757, "andar": 1758, "correr": 1759, "state": 1760, "Luau": 1761, "prevê": 1762, "mensagens": 1763, "Store": 1764, "fallback": 1765, "longe": 1766, "grade": 1767, "custam": 1768, "nciar": 1769, "graça": 1770, "descreve": 1771, "rugosidade": 1772, "reage": 1773, "atual": 1774, "muito": 1775, "pesos": 1776, "volume": 1777, "fazem": 1778, "conjunto": 1779, "justo": 1780, "anti": 1781, "cheat": 1782, "custo": 1783, "less": 1784, "Testes": 1785, "aloca": 1786, "mostra": 1787, "gargalo": 1788, "aponta": 1789, "artist": 1790, "visão": 1791, "function": 1792, "collap": 1793, "global": 1794, "criando": 1795, "suaves": 1796, "dinâ": 1797, "lightmap": 1798, "ticle": 1799, "system": 1800, "kinned": 1801, "mesh": 1802, "evitam": 1803, "simplifica": 1804, "corpo": 1805, "competi": 1806, "consiste": 1807, "Balance": 1808, "balance": 1809, "iras": 1810, "passe": 1811, "ntion": 1812, "voltam": 1813, "sessão": 1814, "prontos": 1815, "editor": 1816, "costuma": 1817, "estú": 1818, "minar": 1819, "terrain": 1820, "trilhas": 1821, "cinza": 1822, "cenários": 1823, "blocos": 1824, "massa": 1825, "posições": 1826, "máscara": 1827, "borda": 1828, "color": 1829, "proces": 1830, "Projéteis": 1831, "conquista": 1832, "inguém": 1833, "termin": 1834, "suavizar": 1835, "testa": 1836, "gravidade": 1837, "terceira": 1838, "ensas": 1839, "gratu": 1840, "visível": 1841, "anter": 1842, "lançar": 1843, "onetização": 1844, "justa": 1845, "sorri": 1846, "restri": 1847, "creva": 1848, "cena": 1849, "desde": 1850, "eixos": 1851, "Version": 1852, "lerp": 1853, "reais": 1854, "fala": 1855, "small": 1856, "with": 1857, "inteligência": 1858, "artificial": 1859, "direta": 1860, "physics": 1861, "direção": 1862, "turas": 1863, "princípi": 1864, "facial": 1865, "ajustar": 1866, "contínu": 1867, "cabeça": 1868, "parado": 1869, "linguagem": 1870, "Mantenha": 1871, "DataStore": 1872, "respon": 1873, "calls": 1874, "ências": 1875, "aparelho": 1876, "distância": 1877, "Reduzir": 1878, "várias": 1879, "repetidos": 1880, "aproxima": 1881, "albedo": 1882, "indie": 1883, "silhueta": 1884, "sistência": 1885, "rollback": 1886, "validar": 1887, "headless": 1888, "garante": 1889, "pacote": 1890, "mantendo": 1891, "reduz": 1892, "começa": 1893, "baixo": 1894, "elementos": 1895, "overdraw": 1896, "segue": 1897, "decidem": 1898, "enorme": 1899, "remove": 1900, "completo": 1901, "aprender": 1902, "comple": 1903, "gameplay": 1904, "valide": 1905, "ficam": 1906, "publicação": 1907, "ligam": 1908, "yboxing": 1909, "modeling": 1910, "história": 1911, "continua": 1912, "issolução": 1913, "direto": 1914, "significa": 1915, "object": 1916, "rápidos": 1917, "possível": 1918, "engajamento": 1919, "segura": 1920, "Playtest": 1921, "explicar": 1922, "mudan": 1923, "reload": 1924, "desafio": 1925, "manter": 1926, "decide": 1927, "pression": 1928, "usadas": 1929, "renderização": 1930, "trapaças": 1931, "necessária": 1932, "exportar": 1933, "clareza": 1934, "alguns": 1935, "instantâne": 1936, "artesanal": 1937, "animador": 1938, "dezenas": 1939, "targeting": 1940, "animações": 1941, "modernas": 1942, "confie": 1943, "tabelas": 1944, "pequenas": 1945, "otimização": 1946, "sobreposta": 1947, "framerate": 1948, "desenho": 1949, "instanciar": 1950, "multiplica": 1951, "targets": 1952, "produzir": 1953, "partículas": 1954, "impacto": 1955, "imediata": 1956, "comando": 1957, "caminho": 1958, "essencial": 1959, "partir": 1960, "suporte": 1961, "comunidade": 1962, "economy": 1963, "recursos": 1964, "quantos": 1965, "variação": 1966, "eficientes": 1967, "primeiro": 1968, "comunica": 1969, "permite": 1970, "produza": 1971, "extrai": 1972, "sozinho": 1973, "aceleram": 1974, "destruir": 1975, "timestep": 1976, "milissegundos": 1977, "boarding": 1978, "observa": 1979, "pequenos": 1980, "commit": 1981, "inimigo": 1982, "robusto": 1983, "formato": 1984, "projetos": 1985, "travamentos": 1986, "contexto": 1987, "acontece": 1988, "principal": 1989, "próprio": 1990, "rendering": 1991, "transição": 1992, "natural": 1993, "acompan": 1994, "vértices": 1995, "proporcional": 1996, "shaders": 1997, "controla": 1998, "collapse": 1999, "vértice": 2000, "adaptativo": 2001, "componentes": 2002, "processa": 2003, "controller": 2004, "buffering": 2005, "recompensas": 2006, "recompensa": 2007, "restrição": 2008, "central": 2009, "tificação": 2010, "componente": 2011, "facilita": 2012, "diálogo": 2013, "control": 2014, "ferramenta": 2015, "exportação": 2016, "interpola": 2017, "importantes": 2018, "reproduz": 2019, "progressão": 2020, "programming": 2021, "oriented": 2022, "calibrado": 2023, "princípios": 2024, "compartilha": 2025, "transparências": 2026, "Automatizar": 2027, "verificam": 2028, "versionamento": 2029, "diferencia": 2030, "components": 2031, "procedural": 2032, "superfícies": 2033, "configurações": 2034, "estruturado": 2035, "sobrepostas": 2036, "45": 2037, "77": 2038, "89": 2039, "59": 2040, "50": 2041, "75": 2042, "93": 2043, "96": 2044, "87": 2045, "65": 2046, "56": 2047, "36": 2048, "91": 2049, "72": 2050, "76": 2051, "55": 2052, "66": 2053, "86": 2054, "57": 2055, "98": 2056, "84": 2057, "82": 2058, "99": 2059, "52": 2060, "94": 2061, "69": 2062, "64": 2063, "60": 2064, "63": 2065, "62": 2066, "39": 2067, "\n\n\n\n": 2068, "74": 2069, "61": 2070, "ticos": 2071, "38": 2072, "49": 2073, "exter": 2074, "externas": 2075, "lês": 2076, "lici": 2077, "utivas": 2078, "rma": 2079, "íci": 2080, "bá": 2081, "átic": 2082, "ola": 2083, "gal": 2084, "Fo": 2085, "sas": 2086, "vre": 2087, "cens": 2088, "ura": 2089, "apa": 2090, "kens": 2091, "Hon": 2092, "ow": 2093, "llig": 2094, "run": 2095, "Wh": 2096, "ur": 2097, "pme": 2098, "hand": 2099, "prac": 2100, "Its": 2101, "nic": 2102, "lps": 2103, "Pular": 2104, "cane": 2105, "Abrir": 2106, "ilhas": 2107, "Ilhas": 2108, "Ba": 2109, "oc": 2110, "ion": 2111, "hu": 2112, "fus": 2113, "squ": 2114, "stre": 2115, "tch": 2116, "ante": 2117, "cs": 2118, "yframe": 2119, "ví": 2120, "bru": 2121, "Bl": 2122, "kine": 2123, "Cin": 2124, "ática": 2125, "iar": 2126, "vada": 2127, "Fun": 2128, "Estr": 2129, "uture": 2130, "Script": 2131, "dSto": 2132, "Star": 2133, "senti": 2134, "vinda": 2135, "yU": 2136, "Sa": 2137, "Pu": 2138, "iter": 2139, "ícon": 2140, "bna": 2141, "vul": 2142, "ális": 2143, "Atu": 2144, "bine": 2145, "dista": 2146, "agrade": 2147, "Dra": 2148, "Mui": 2149, "Gra": 2150, "st": 2151, "ulação": 2152, "edades": 2153, "sicas": 2154, "dú": 2155, "stri": 2156, "tível": 2157, "Mor": 2158, "riso": 2159, "fone": 2160, "eze": 2161, "Pe": 2162, "lho": 2163, "cro": 2164, "pis": 2165, "gível": 2166, "Ne": 2167, "tência": 2168, "Rol": 2169, "sário": 2170, "vesti": 2171, "jane": 2172, "Build": 2173, "nu": 2174, "apare": 2175, "smo": 2176, "rem": 2177, "CPU": 2178, "pma": 2179, "Ge": 2180, "eator": 2181, "dun": 2182, "wave": 2183, "Wave": 2184, "jac": 2185, "cé": 2186, "Gera": 2187, "Il": 2188, "micas": 2189, "Lig": 2190, "Cus": 2191, "Cen": 2192, "fog": 2193, "fuma": 2194, "eira": 2195, "Part": 2196, "ículas": 2197, "skinned": 2198, "Skinned": 2199, "Pes": 2200, "Ph": 2201, "cá": 2202, "Col": 2203, "gdoll": 2204, "Rag": 2205, "Limi": 2206, "Hitbox": 2207, "Frame": 2208, "star": 2209, "ativos": 2210, "nisso": 2211, "acessibilidade": 2212, "bar": 2213, "lto": 2214, "nis": 2215, "tável": 2216, "pú": 2217, "Li": 2218, "ope": 2219, "zô": 2220, "Da": 2221, "Tor": 2222, "flação": 2223, "ule": 2224, "D7": 2225, "D30": 2226, "Melho": 2227, "tf": 2228, "óli": 2229, "zing": 2230, "Usar": 2231, "Tra": 2232, "aus": 2233, "ré": 2234, "Fil": 2235, "Ma": 2236, "ainda": 2237, "uti": 2238, "num": 2239, "flu": 2240, "AP": 2241, "So": 2242, "Áudio": 2243, "sinc": 2244, "niza": 2245, "Gre": 2246, "zas": 2247, "rível": 2248, "nen": 2249, "huma": 2250, "anto": 2251, "Pers": 2252, "ocu": 2253, "gâ": 2254, "Ed": 2255, "rcula": 2256, "áre": 2257, "amassa": 2258, "ami": 2259, "gáveis": 2260, "zio": 2261, "Pos": 2262, "lê": 2263, "Spacing": 2264, "uem": 2265, "Follow": 2266, "apó": 2267, "fle": 2268, "nando": 2269, "dril": 2270, "oposição": 2271, "oito": 2272, "cun": 2273, "dários": 2274, "mic": 2275, "dê": 2276, "dissolução": 2277, "Dissolução": 2278, "abaixo": 2279, "Efeito": 2280, "efeito": 2281, "age": 2282, "fri": 2283, "ígu": 2284, "Ob": 2285, "Ati": 2286, "eda": 2287, "Ninguém": 2288, "ninguém": 2289, "acopla": 2290, "Fix": 2291, "uber": 2292, "ís": 2293, "Rende": 2294, "Sw": 2295, "futura": 2296, "atra": 2297, "Cha": 2298, "Não": 2299, "Pare": 2300, "Câ": 2301, "aim": 2302, "Aim": 2303, "Bem": 2304, "Passe": 2305, "XP": 2306, "tória": 2307, "ej": 2308, "há": 2309, "tina": 2310, "misso": 2311, "On": 2312, "apres": 2313, "pra": 2314, "Tu": 2315, "utos": 2316, "tin": 2317, "monetização": 2318, "Monetização": 2319, "tóri": 2320, "sent": 2321, "win": 2322, "cê": 2323, "Des": 2324, "Rest": 2325, "abra": 2326, "bin": 2327, "ida": 2328, "nch": 2329, "efa": 2330, "Time": 2331, "ue": 2332, "ída": 2333, "dice": 2334, "Código": 2335, "Ho": 2336, "sé": 2337, "Pi": 2338, "iável": 2339, "Cer": 2340, "cum": 2341, "Pre": 2342, "mica": 2343, "Nunca": 2344, "único": 2345, "slo": 2346, "dicas": 2347, "ais": 2348, "ncer": 2349, "Fe": 2350, "aper": 2351, "itos": 2352, "visa": 2353, "ias": 2354, "ior": 2355, "Del": 2356, "Multi": 2357, "igu": 2358, "utado": 2359, "item": 2360, "êin": 2361, "sforma": 2362, "Spri": 2363, "erar": 2364, "ríg": 2365, "idas": 2366, "tâ": 2367, "ng": 2368, "põ": 2369, "cando": 2370, "izar": 2371, "git": 2372, "Tile": 2373, "Ra": 2374, "ofere": 2375, "Ler": 2376, "ativo": 2377, "nes": 2378, "Ao": 2379, "gmento": 2380, "Efeitos": 2381, "Im": 2382, "Dano": 2383, "Mu": 2384, "vado": 2385, "JS": 2386, "Vali": 2387, "nó": 2388, "Pon": 2389, "lões": 2390, "numa": 2391, "oci": 2392, "cy": 2393, "ste": 2394, "up": 2395, "wor": 2396, "scre": 2397, "job": 2398, "Enti": 2399, "This": 2400, "avo": 2401, "id": 2402, "her": 2403, "cra": 2404, "ft": 2405, "spa": 2406, "that": 2407, "ach": 2408, "len": 2409, "ward": 2410, "Go": 2411, "od": 2412, "ear": 2413, "wat": 2414, "wh": 2415, "stu": 2416, "Ar": 2417, "tis": 2418, "binar": 2419, "ef": 2420, "from": 2421, "Gere": 2422, "Cor": 2423, "dó": 2424, "nado": 2425, "nada": 2426, "Ano": 2427, "79": 2428, "73": 2429, "85": 2430, "88": 2431, "67": 2432, "ntidade": 2433, "tugu": 2434, "sile": 2435, "solici": 2436, "Quando": 2437, "inve": 2438, "fatos": 2439, "tados": 2440, "recus": 2441, "ultou": 2442, "net": 2443, "rodou": 2444, "leu": 2445, "argu": 2446, "espe": 2447, "cializa": 2448, "hece": 2449, "básica": 2450, "prátic": 2451, "assu": 2452, "nologia": 2453, "judica": 2454, "viola": 2455, "adul": 2456, "Fora": 2457, "livre": 2458, "tokens": 2459, "segre": 2460, "inado": 2461, "own": 2462, "ence": 2463, "official": 2464, "answ": 2465, "user": 2466, "When": 2467, "does": 2468, "thing": 2469, "says": 2470, "never": 2471, "facts": 2472, "sour": 2473, "did": 2474, "ciali": 2475, "develo": 2476, "main": 2477, "nolog": 2478, "helps": 2479, "users": 2480, "plan": 2481, "aber": 2482, "turização": 2483, "Retopologia": 2484, "reconstruir": 2485, "escane": 2486, "ares": 2487, "achat": 2488, "esticar": 2489, "empaco": 2490, "Baking": 2491, "rele": 2492, "occl": 2493, "usion": 2494, "vature": 2495, "ana": 2496, "huras": 2497, "luem": 2498, "ash": 2499, "cipa": 2500, "arcs": 2501, "secon": 2502, "deles": 2503, "keyframe": 2504, "pais": 2505, "refina": 2506, "teci": 2507, "Mocap": 2508, "víde": 2509, "peza": 2510, "blend": 2511, "Blend": 2512, "matic": 2513, "emática": 2514, "ançar": 2515, "mirar": 2516, "mach": 2517, "duração": 2518, "coração": 2519, "deri": 2520, "tipa": 2521, "Replica": 2522, "tedSto": 2523, "rage": 2524, "arma": 2525, "Retr": 2526, "yUnt": 2527, "ilSa": 2528, "lidar": 2529, "requ": 2530, "isições": 2531, "erro": 2532, "Publi": 2533, "thum": 2534, "divul": 2535, "anális": 2536, "supe": 2537, "mire": 2538, "atlas": 2539, "ordem": 2540, "tas": 2541, "madas": 2542, "malhas": 2543, "Insta": 2544, "pedra": 2545, "inst": 2546, "ondas": 2547, "lexo": 2548, "didade": 2549, "ical": 2550, "físicas": 2551, "indú": 2552, "clar": 2553, "sobra": 2554, "siga": 2555, "vence": 2556, "orial": 2557, "camera": 2558, "Peque": 2559, "exag": 2560, "juice": 2561, "amplifica": 2562, "cole": 2563, "bater": 2564, "cante": 2565, "legível": 2566, "Netcode": 2567, "recon": 2568, "cili": 2569, "latência": 2570, "abor": 2571, "dagens": 2572, "adver": 2573, "ouro": 2574, "tege": 2575, "esas": 2576, "fati": 2577, "investi": 2578, "Execu": 2579, "dedica": 2580, "auto": 2581, "máti": 2582, "pila": 2583, "numera": 2584, "regres": 2585, "dano": 2586, "juntos": 2587, "abrem": 2588, "fil": 2589, "uição": 2590, "medir": 2591, "deman": 2592, "mipma": 2593, "cebida": 2594, "Geração": 2595, "aleator": 2596, "iedade": 2597, "renos": 2598, "geon": 2599, "lhar": 2600, "adjac": 2601, "peças": 2602, "célu": 2603, "todas": 2604, "vai": 2605, "cola": 2606, "psando": 2607, "opção": 2608, "coer": 2609, "Iluminação": 2610, "rebate": 2611, "solu": 2612, "pré": 2613, "micos": 2614, "emite": 2615, "poeira": 2616, "magia": 2617, "ricos": 2618, "enche": 2619, "fill": 2620, "artic": 2621, "dobras": 2622, "estran": 2623, "Phys": 2624, "esfe": 2625, "cáps": 2626, "ulas": 2627, "isão": 2628, "ragdoll": 2629, "osso": 2630, "questão": 2631, "deve": 2632, "tup": 2633, "reco": 2634, "avan": 2635, "çados": 2636, "Localização": 2637, "acentos": 2638, "espa": 2639, "maiores": 2640, "tabe": 2641, "reiras": 2642, "remape": 2643, "dalto": 2644, "legen": 2645, "ampli": 2646, "públi": 2647, "live": 2648, "Live": 2649, "sazô": 2650, "nicos": 2651, "Dados": 2652, "rece": 2653, "guia": 2654, "libra": 2655, "neiras": 2656, "inflação": 2657, "tédio": 2658, "médio": 2659, "Rete": 2660, "novos": 2661, "domine": 2662, "detalha": 2663, "tfóli": 2664, "caba": 2665, "pintar": 2666, "sutil": 2667, "Asse": 2668, "uso": 2669, "unifica": 2670, "rados": 2671, "habili": 2672, "colado": 2673, "suces": 2674, "tools": 2675, "Tools": 2676, "dios": 2677, "réplica": 2678, "regi": 2679, "Mapas": 2680, "viáveis": 2681, "tole": 2682, "reuti": 2683, "bibli": 2684, "Dominar": 2685, "seus": 2686, "pain": 2687, "mont": 2688, "anhas": 2689, "caver": 2690, "voxel": 2691, "API": 2692, "gerar": 2693, "Boa": 2694, "Som": 2695, "sições": 2696, "mixa": 2697, "oridade": 2698, "coes": 2699, "empi": 2700, "roniza": 2701, "rativas": 2702, "metros": 2703, "Escala": 2704, "quanto": 2705, "metro": 2706, "esca": 2707, "dela": 2708, "Defin": 2709, "Box": 2710, "cubo": 2711, "Extr": 2712, "usões": 2713, "Escul": 2714, "argi": 2715, "orgâ": 2716, "peça": 2717, "virar": 2718, "anim": 2719, "edge": 2720, "Edge": 2721, "circula": 2722, "olhos": 2723, "boca": 2724, "dobra": 2725, "Topologia": 2726, "impedem": 2727, "vazio": 2728, "ponta": 2729, "extrem": 2730, "recu": 2731, "peração": 2732, "sóli": 2733, "secu": 2734, "Espa": 2735, "onalidade": 2736, "xibili": 2737, "cida": 2738, "subida": 2739, "sobe": 2740, "ançam": 2741, "doze": 2742, "tenta": 2743, "Poli": 2744, "liza": 2745, "secun": 2746, "levar": 2747, "total": 2748, "duras": 2749, "orno": 2750, "fecha": 2751, "usado": 2752, "lizados": 2753, "recor": 2754, "emis": 2755, "siva": 2756, "sação": 2757, "mix": 2758, "nativa": 2759, "puros": 2760, "lotes": 2761, "tetura": 2762, "arra": 2763, "ponte": 2764, "lote": 2765, "filos": 2766, "ofia": 2767, "Obje": 2768, "recriar": 2769, "moeda": 2770, "foi": 2771, "escu": 2772, "cata": 2773, "acum": 2774, "couber": 2775, "determin": 2776, "ística": 2777, "sweep": 2778, "Sweep": 2779, "pont": 2780, "escor": 2781, "pura": 2782, "coyote": 2783, "Coyote": 2784, "sair": 2785, "sivo": 2786, "Input": 2787, "pulo": 2788, "Câmera": 2789, "mola": 2790, "enquad": 2791, "ramento": 2792, "cober": 2793, "mira": 2794, "puxa": 2795, "levem": 2796, "sidades": 2797, "vitória": 2798, "diária": 2799, "ejada": 2800, "invalidar": 2801, "astre": 2802, "Loop": 2803, "nova": 2804, "Diário": 2805, "hábi": 2806, "seman": 2807, "rotina": 2808, "seas": 2809, "esfor": 2810, "onboarding": 2811, "Onboarding": 2812, "deixa": 2813, "Tutorial": 2814, "ruba": 2815, "dez": 2816, "veni": 2817, "poder": 2818, "obriga": 2819, "vanta": 2820, "Pay": 2821, "você": 2822, "guntas": 2823, "vêm": 2824, "rição": 2825, "çada": 2826, "orçamento": 2827, "melh": 2828, "vedor": 2829, "estra": 2830, "tégia": 2831, "Nome": 2832, "escreva": 2833, "saída": 2834, "asser": 2835, "Asser": 2836, "suposições": 2837, "nega": 2838, "índice": 2839, "dent": 2840, "métr": 2841, "pior": 2842, "hot": 2843, "Hot": 2844, "rein": 2845, "recarrega": 2846, "vivo": 2847, "zado": 2848, "Debug": 2849, "invisível": 2850, "raios": 2851, "acre": 2852, "dita": 2853, "séri": 2854, "modo": 2855, "rico": 2856, "Pipe": 2857, "dução": 2858, "reintegra": 2859, "caracter": 2860, "relançamento": 2861, "loja": 2862, "vacidade": 2863, "repro": 2864, "escreve": 2865, "meia": 2866, "saves": 2867, "igos": 2868, "pido": 2869, "point": 2870, "tuais": 2871, "vencer": 2872, "Dificuldade": 2873, "ruim": 2874, "irri": 2875, "Feedback": 2876, "ouvi": 2877, "explica": 2878, "revisa": 2879, "audi": 2880, "três": 2881, "decorri": 2882, "plicar": 2883, "lentos": 2884, "Exem": 2885, "jétil": 2886, "coisa": 2887, "hierar": 2888, "reus": 2889, "delimi": 2890, "alin": 2891, "Dois": 2892, "retâ": 2893, "ngul": 2894, "coli": 2895, "põem": 2896, "esquer": 2897, "rendo": 2898, "ximo": 2899, "Separe": 2900, "pedir": 2901, "tiles": 2902, "Raycast": 2903, "raio": 2904, "ponto": 2905, "cobrir": 2906, "Quase": 2907, "gunta": 2908, "tecla": 2909, "seja": 2910, "exato": 2911, "soma": 2912, "pontos": 2913, "uais": 2914, "daí": 2915, "Reproduza": 2916, "Impri": 2917, "releva": 2918, "gele": 2919, "tir": 2920, "recar": 2921, "Mude": 2922, "JSON": 2923, "nós": 2924, "escri": 2925, "Esco": 2926, "recri": 2927, "Leia": 2928, "docu": 2929, "menta": 2930, "tentar": 2931, "taxa": 2932, "vilões": 2933, "Pool": 2934, "veitar": 2935, "fila": 2936, "osa": 2937, "lixo": 2938, "cycle": 2939, "thre": 2940, "read": 2941, "upda": 2942, "acros": 2943, "rates": 2944, "like": 2945, "movem": 2946, "heal": 2947, "reusa": 2948, "ids": 2949, "deep": 2950, "inher": 2951, "Level": 2952, "teach": 2953, "chal": 2954, "reward": 2955, "Good": 2956, "rodu": 2957, "safe": 2958, "then": 2959, "where": 2960, "get": 2961, "team": 2962, "Artis": 2963, "sages": 2964, "Lock": 2965, "eful": 2966, "keep": 2967, "cible": 2968, "out": 2969, "emula": 2970, "esses": 2971, "Boas": 2972, "Mode": 2973, "Escreva": 2974, "núcle": 2975, "toti": 2976, "giga": 2977, "abando": 2978, "cura": 2979, "erros": 2980, "istem": 2981, "identidade": 2982, "entende": 2983, "portugu": 2984, "brasile": 2985, "aceita": 2986, "inglês": 2987, "possibilidade": 2988, "ideia": 2989, "aceitar": 2990, "rmação": 2991, "ícita": 2992, "conhece": 2993, "tecnologia": 2994, "prejudica": 2995, "termos": 2996, "ilegal": 2997, "dessas": 2998, "linhas": 2999, "desnecessária": 3000, "perten": 3001, "salvar": 3002, "buscar": 3003, "apagar": 3004, "memóri": 3005, "senhas": 3006, "treinado": 3007, "Honesti": 3008, "pronta": 3009, "runs": 3010, "langua": 3011, "honest": 3012, "perfor": 3013, "speciali": 3014, "pment": 3015, "basics": 3016, "tices": 3017, "niche": 3018, "logic": 3019, "refuses": 3020, "cheats": 3021, "texturização": 3022, "limpa": 3023, "desperdi": 3024, "curvature": 3025, "bordas": 3026, "pesado": 3027, "engana": 3028, "exibe": 3029, "ranhuras": 3030, "fusos": 3031, "costuras": 3032, "Quais": 3033, "incluem": 3034, "squash": 3035, "staging": 3036, "dary": 3037, "captura": 3038, "capture": 3039, "grava": 3040, "bruto": 3041, "limpeza": 3042, "corrig": 3043, "desliz": 3044, "valentes": 3045, "parâme": 3046, "trocar": 3047, "Cinemática": 3048, "alcançar": 3049, "apoiar": 3050, "clipes": 3051, "condição": 3052, "Function": 3053, "Server": 3054, "Service": 3055, "terPlay": 3056, "zenamento": 3057, "serializa": 3058, "descri": 3059, "bnail": 3060, "Atualiza": 3061, "freque": 3062, "perfeito": 3063, "Combine": 3064, "evite": 3065, "versões": 3066, "Perto": 3067, "percebe": 3068, "Draw": 3069, "Muitos": 3070, "muitas": 3071}, "merges": [["d", "e"], ["r", "a"], ["e", "s"], ["n", "t"], ["T", "A"], ["c", "o"], ["o", "s"], ["q", "u"], ["m", "a"], ["e", "r"], ["d", "o"], ["a", "r"], ["d", "a"], ["i", "s"], ["e", "m"], ["ã", "o"], ["i", "n"], ["\n", "\n"], ["E", "R"], ["qu", "e"], ["r", "e"], ["m", "e"], ["t", "a"], ["E", "S"], ["a", "l"], ["P", "ER"], ["G", "U"], ["N", "TA"], ["R", "ES"], ["P", "O"], ["S", "TA"], ["GU", "NTA"], ["PO", "STA"], ["PER", "GUNTA"], ["RES", "POSTA"], ["o", "r"], ["a", "s"], ["r", "o"], ["co", "m"], ["t", "e"], ["i", "c"], ["ç", "ão"], ["v", "e"], ["t", "o"], ["o", "g"], ["r", "i"], ["p", "a"], ["a", "n"], ["o", "n"], ["e", "n"], ["t", "i"], ["j", "og"], ["l", "a"], ["nt", "o"], ["d", "i"], ["p", "o"], ["l", "e"], ["l", "o"], ["e", "nt"], ["u", "s"], ["h", "a"], ["m", "o"], ["p", "ro"], ["pa", "ra"], ["l", "i"], ["c", "i"], ["ic", "a"], ["de", "s"], ["v", "i"], ["t", "u"], ["u", "m"], ["p", "or"], ["c", "e"], ["u", "a"], ["c", "a"], ["n", "o"], ["s", "e"], ["jog", "o"], ["ma", "is"], ["s", "o"], ["p", "e"], ["s", "i"], ["in", "g"], ["u", "n"], ["da", "de"], ["r", "es"], ["v", "er"], ["d", "os"], ["n", "os"], ["Q", "ua"], ["t", "ra"], ["p", "er"], ["t", "es"], ["m", "i"], ["me", "nto"], ["Qua", "nto"], ["g", "a"], ["nt", "e"], ["z", "a"], ["f", "or"], ["co", "n"], ["u", "ma"], ["b", "a"], ["h", "e"], ["p", "os"], ["g", "ra"], ["o", "b"], ["me", "nos"], ["u", "l"], ["p", "l"], ["i", "ma"], ["tu", "ra"], ["õ", "es"], ["e", "x"], ["o", "l"], ["p", "ar"], ["in", "e"], ["t", "er"], ["s", "a"], ["ve", "z"], ["t", "os"], ["d", "u"], ["i", "a"], ["s", "ão"], ["a", "do"], ["j", "e"], ["g", "e"], ["g", "em"], ["t", "em"], ["ç", "a"], ["al", "i"], ["g", "u"], ["co", "nt"], ["for", "ma"], ["g", "o"], ["f", "a"], ["ç", "ões"], ["c", "ri"], ["an", "ima"], ["on", "a"], ["t", "ar"], ["a", "da"], ["p", "i"], ["an", "do"], ["s", "em"], ["c", "k"], ["o", "u"], ["t", "r"], ["C", "o"], ["n", "ão"], ["t", "s"], ["p", "as"], ["te", "x"], ["p", "re"], ["f", "e"], ["de", "r"], ["co", "r"], ["h", "o"], ["c", "u"], ["á", "ri"], ["i", "m"], ["l", "ha"], ["v", "a"], ["n", "a"], ["ve", "l"], ["com", "p"], ["anima", "ção"], ["vez", "es"], ["s", "er"], ["b", "ra"], ["f", "er"], ["o", "p"], ["a", "d"], ["c", "ar"], ["es", "ta"], ["da", "s"], ["in", "a"], ["jog", "ado"], ["f", "ica"], ["ó", "di"], ["u", "i"], ["a", "nt"], ["ódi", "go"], ["com", "o"], ["ent", "e"], ["co", "s"], ["b", "i"], ["c", "ódigo"], ["f", "i"], ["i", "nt"], ["b", "o"], ["p", "la"], ["e", "l"], ["jog", "os"], ["per", "s"], ["cont", "ro"], ["A", "R"], ["K", "H"], ["AR", "KH"], ["ARKH", "ER"], ["p", "u"], ["t", "ic"], ["c", "h"], ["v", "o"], ["a", "m"], ["l", "u"], ["e", "d"], ["ob", "je"], ["n", "as"], ["n", "ci"], ["t", "or"], ["f", "í"], ["l", "og"], ["c", "he"], ["s", "is"], ["ba", "ck"], ["ga", "me"], ["en", "s"], ["mo", "de"], ["pers", "ona"], ["jogado", "r"], ["b", "e"], ["s", "ica"], ["j", "u"], ["i", "g"], ["c", "al"], ["R", "ob"], ["ic", "i"], ["ra", "me"], ["en", "g"], ["lo", "x"], ["pro", "du"], ["Rob", "lox"], ["s", "u"], ["ó", "ri"], ["a", "o"], ["m", "es"], ["s", "os"], ["i", "x"], ["qu", "ando"], ["nt", "a"], ["qu", "i"], ["ma", "s"], ["si", "m"], ["pl", "us"], ["por", "ta"], ["tem", "po"], ["i", "nte"], ["p", "ri"], ["s", "ó"], ["s", "ta"], ["j", "us"], ["as", "e"], ["do", "r"], ["is", "a"], ["nt", "os"], ["vi", "mento"], ["an", "d"], ["Co", "mo"], ["tra", "n"], ["ha", "t"], ["i", "dade"], ["l", "ine"], ["c", "es"], ["t", "re"], ["C", "ada"], ["l", "es"], ["i", "r"], ["l", "is"], ["m", "in"], ["f", "in"], ["lo", "op"], ["za", "ção"], ["gu", "ar"], ["ma", "lha"], ["ra", "m"], ["nci", "a"], ["ári", "o"], ["pre", "c"], ["int", "er"], ["des", "en"], ["tex", "tura"], ["ent", "es"], ["sis", "te"], ["persona", "gem"], ["O", "N"], ["p", "r"], ["u", "g"], ["i", "ção"], ["co", "nte"], ["ta", "m"], ["ve", "lo"], ["ig", "n"], ["qu", "ad"], ["ra", "r"], ["ma", "ter"], ["óri", "a"], ["par", "e"], ["ent", "re"], ["ant", "es"], ["guar", "da"], ["Q", "U"], ["T", "I"], ["W", "hat"], ["A", "N"], ["S", "W"], ["QU", "ES"], ["TI", "ON"], ["AN", "SW"], ["QUES", "TION"], ["ANSW", "ER"], ["E", "la"], ["n", "e"], ["v", "ol"], ["c", "er"], ["3", "D"], ["l", "h"], ["p", "es"], ["t", "ro"], ["v", "al"], ["c", "li"], ["d", "ra"], ["í", "vel"], ["c", "â"], ["r", "á"], ["m", "un"], ["b", "al"], ["m", "er"], ["di", "o"], ["es", "t"], ["fí", "sica"], ["po", "is"], ["ci", "dade"], ["pe", "que"], ["fe", "i"], ["ha", "der"], ["qu", "er"], ["ser", "vi"], ["log", "ia"], ["cri", "p"], ["des", "ign"], ["eng", "ine"], ["obje", "tos"], ["esta", "do"], ["i", "t"], ["pro", "je"], ["ê", "ncia"], ["f", "ici"], ["a", "u"], ["U", "m"], ["v", "ali"], ["m", "em"], ["v", "ar"], ["g", "ar"], ["p", "s"], ["l", "d"], ["v", "is"], ["f", "un"], ["e", "vi"], ["di", "fer"], ["is", "so"], ["po", "logia"], ["ta", "l"], ["mo", "vimento"], ["ra", "ção"], ["ro", "da"], ["me", "ra"], ["qu", "al"], ["re", "al"], ["ti", "me"], ["pos", "ição"], ["cli", "ente"], ["ent", "ra"], ["dra", "w"], ["prec", "isa"], ["velo", "cidade"], ["servi", "dor"], ["1", "2"], ["I", "t"], ["y", "s"], ["R", "e"], ["a", "to"], ["r", "os"], ["l", "l"], ["á", "vel"], ["z", "ar"], ["i", "ra"], ["on", "de"], ["un", "ca"], ["ar", "qui"], ["bi", "li"], ["es", "ti"], ["ui", "ld"], ["to", "pologia"], ["si", "on"], ["de", "pois"], ["ic", "e"], ["re", "gra"], ["po", "u"], ["ve", "is"], ["mem", "ória"], ["qual", "quer"], ["1", "0"], ["nt", "es"], ["i", "za"], ["a", "ce"], ["n", "unca"], ["i", "fica"], ["c", "us"], ["c", "l"], ["t", "he"], ["t", "h"], ["a", "c"], ["b", "uild"], ["e", "ta"], ["í", "g"], ["g", "an"], ["á", "s"], ["A", "A"], ["g", "ens"], ["c", "as"], ["s", "hader"], ["c", "ul"], ["D", "e"], ["ç", "o"], ["n", "ú"], ["en", "d"], ["di", "re"], ["nt", "as"], ["so", "b"], ["ve", "nt"], ["pi", "pe"], ["ul", "ar"], ["vi", "ra"], ["ma", "p"], ["so", "m"], ["Co", "m"], ["or", "es"], ["pl", "ica"], ["le", "to"], ["os", "sos"], ["us", "a"], ["em", "o"], ["li", "mi"], ["ed", "back"], ["ia", "is"], ["ba", "ra"], ["de", "m"], ["ar", "te"], ["di", "ver"], ["tes", "te"], ["com", "un"], ["mun", "do"], ["crip", "ts"], ["comp", "on"], ["tran", "s"], ["mater", "iais"], ["1", "1"], ["f", "o"], ["i", "ro"], ["a", "ju"], ["ú", "do"], ["l", "ing"], ["b", "ug"], ["U", "V"], ["s", "tr"], ["l", "íg"], ["b", "em"], ["n", "or"], ["k", "e"], ["f", "rame"], ["p", "é"], ["a", "jus"], ["g", "res"], ["a", "ta"], ["c", "ha"], ["c", "re"], ["i", "al"], ["p", "res"], ["i", "me"], ["t", "é"], ["í", "veis"], ["c", "ali"], ["T", "es"], ["e", "co"], ["h", "ar"], ["b", "le"], ["n", "ica"], ["ta", "do"], ["da", "des"], ["pu", "t"], ["ta", "forma"], ["in", "sta"], ["im", "porta"], ["ti", "on"], ["co", "de"], ["po", "líg"], ["on", "os"], ["fa", "z"], ["ca", "da"], ["cu", "la"], ["da", "dos"], ["fe", "edback"], ["is", "t"], ["câ", "mera"], ["as", "se"], ["ma", "n"], ["rá", "pi"], ["nú", "mer"], ["con", "fi"], ["sob", "re"], ["aju", "da"], ["res", "ol"], ["ada", "p"], ["evi", "ta"], ["cri", "a"], ["eco", "no"], ["car", "re"], ["tex", "to"], ["pla", "y"], ["fici", "al"], ["loop", "s"], ["mode", "lo"], ["pipe", "line"], ["conte", "údo"], ["políg", "onos"], ["regra", "s"], ["peque", "no"], ["contro", "les"], ["\n\n", "\n"], ["proje", "to"], ["d", "r"], ["i", "ta"], ["c", "la"], ["v", "os"], ["a", "ção"], ["p", "lo"], ["l", "in"], ["l", "an"], ["c", "le"], ["g", "un"], ["A", "s"], ["u", "al"], ["f", "ina"], ["g", "i"], ["E", "m"], ["p", "en"], ["S", "er"], ["a", "mento"], ["i", "l"], ["t", "ri"], ["V", "er"], ["x", "a"], ["i", "mi"], ["pa", "dr"], ["si", "bili"], ["in", "put"], ["te", "n"], ["ar", "e"], ["le", "ta"], ["la", "gem"], ["UV", "s"], ["ma", "pas"], ["ri", "g"], ["an", "e"], ["ma", "l"], ["lu", "z"], ["ca", "ma"], ["es", "que"], ["on", "al"], ["do", "is"], ["ce", "do"], ["ti", "mi"], ["la", "ção"], ["ic", "as"], ["pa", "c"], ["es", "co"], ["ca", "min"], ["ma", "nt"], ["se", "gu"], ["bo", "x"], ["co", "lis"], ["res", "p"], ["ent", "i"], ["tra", "pa"], ["pla", "taforma"], ["car", "o"], ["fun", "ci"], ["pos", "es"], ["pro", "gres"], ["ali", "dade"], ["pou", "cos"], ["mes", "mo"], ["tic", "al"], ["fin", "al"], ["ace", "le"], ["fei", "tos"], ["ime", "di"], ["pos", "s"], ["pro", "gra"], ["cal", "a"], ["padr", "ão"], ["vali", "da"], ["adap", "ta"], ["esta", "dos"], ["esque", "leto"], ["difer", "entes"], ["siste", "ma"], ["entra", "da"], ["inter", "fa"], ["colis", "ão"], ["contro", "le"], ["1", "3"], ["A", "I"], ["b", "ase"], ["s", "ua"], ["u", "ário"], ["h", "i"], ["p", "ó"], ["n", "de"], ["é", "m"], ["s", "en"], ["S", "e"], ["c", "t"], ["o", "f"], ["p", "h"], ["i", "to"], ["x", "el"], ["d", "ar"], ["m", "ing"], ["M", "o"], ["r", "u"], ["e", "qui"], ["ç", "ar"], ["u", "tura"], ["l", "ó"], ["g", "ica"], ["f", "al"], ["P", "a"], ["l", "on"], ["z", "ir"], ["l", "y"], ["P", "B"], ["ó", "ti"], ["v", "es"], ["f", "ic"], ["e", "ve"], ["m", "u"], ["c", "en"], ["E", "s"], ["c", "ic"], ["l", "ta"], ["li", "g"], ["pr", "ó"], ["au", "tor"], ["de", "f"], ["us", "uário"], ["sa", "be"], ["ex", "i"], ["tr", "os"], ["pr", "in"], ["ex", "plo"], ["in", "vent"], ["er", "s"], ["ic", "s"], ["ra", "s"], ["ui", "r"], ["or", "gan"], ["le", "ve"], ["ma", "pa"], ["su", "per"], ["fí", "ci"], ["lh", "as"], ["al", "ta"], ["cu", "r"], ["tu", "re"], ["pl", "es"], ["fa", "ci"], ["ch", "ão"], ["tu", "do"], ["ló", "gica"], ["to", "da"], ["sa", "ve"], ["qu", "alidade"], ["mo", "bi"], ["is", "ta"], ["pe", "la"], ["PB", "R"], ["re", "a"], ["on", "e"], ["nt", "i"], ["po", "li"], ["to", "ma"], ["za", "dos"], ["am", "ing"], ["ar", "t"], ["co", "me"], ["us", "am"], ["vi", "da"], ["me", "nte"], ["ix", "as"], ["da", "ta"], ["an", "ce"], ["mo", "ve"], ["es", "cala"], ["po", "ol"], ["in", "imi"], ["de", "lta"], ["res", "ul"], ["ver", "ifica"], ["fer", "rame"], ["cri", "ar"], ["pos", "ta"], ["nor", "mal"], ["sim", "ples"], ["vis", "ual"], ["com", "b"], ["tar", "ge"], ["cal", "cula"], ["ica", "ção"], ["par", "ti"], ["tro", "ca"], ["ver", "são"], ["che", "ck"], ["ver", "tical"], ["val", "ores"], ["tre", "aming"], ["con", "for"], ["ári", "os"], ["tra", "bal"], ["pas", "so"], ["cic", "lo"], ["des", "a"], ["pas", "sos"], ["Tes", "te"], ["mode", "lagem"], ["tran", "si"], ["cama", "das"], ["mobi", "le"], ["obje", "to"], ["toma", "ti"], ["quad", "ros"], ["esco", "po"], ["desen", "vol"], ["arqui", "vo"], ["super", "fíci"], ["funci", "ona"], ["inter", "po"], ["desen", "ha"], ["econo", "mi"], ["siste", "mas"], ["sibili", "dade"], ["jogado", "res"], ["progra", "m"], ["interfa", "ce"], ["1", "7"], ["1", "6"], ["3", "0"], ["ge", "ra"], ["i", "de"], ["e", "cu"], ["o", "ficial"], ["f", "ra"], ["e", "la"], ["a", "ções"], ["U", "ma"], ["v", "as"], ["ç", "as"], ["s", "cripts"], ["h", "as"], ["g", "ua"], ["n", "der"], ["c", "tion"], ["a", "b"], ["k", "ing"], ["g", "ing"], ["l", "as"], ["e", "le"], ["O", "s"], ["A", "n"], ["i", "tura"], ["b", "lo"], ["t", "mo"], ["b", "l"], ["I", "K"], ["a", "po"], ["m", "á"], ["S", "cripts"], ["R", "emo"], ["P", "la"], ["v", "ê"], ["o", "timi"], ["a", "t"], ["g", "rá"], ["m", "ui"], ["v", "é"], ["r", "tic"], ["n", "ce"], ["j", "ar"], ["z", "e"], ["t", "óti"], ["p", "li"], ["f", "ase"], ["c", "em"], ["g", "as"], ["I", "s"], ["n", "des"], ["a", "ve"], ["n", "i"], ["c", "in"], ["T", "o"], ["e", "di"], ["j", "é"], ["e", "p"], ["b", "u"], ["f", "fer"], ["l", "er"], ["3", "5"], ["1", "5"], ["hi", "pó"], ["us", "ada"], ["in", "es"], ["ri", "zação"], ["on", "line"], ["ra", "c"], ["ch", "an"], ["re", "topologia"], ["de", "forma"], ["li", "ga"], ["pa", "co"], ["de", "tal"], ["pi", "xel"], ["ra", "n"], ["cl", "ás"], ["An", "ima"], ["le", "itura"], ["du", "ra"], ["ri", "tmo"], ["ci", "onal"], ["ho", "ra"], ["el", "es"], ["es", "tr"], ["is", "te"], ["ic", "ar"], ["re", "ten"], ["ça", "mento"], ["Pa", "ra"], ["re", "pe"], ["ul", "ti"], ["qu", "ase"], ["es", "cul"], ["vé", "rtic"], ["pl", "ane"], ["De", "fina"], ["se", "para"], ["im", "poss"], ["ti", "l"], ["re", "produ"], ["al", "o"], ["Is", "so"], ["qu", "em"], ["de", "pu"], ["co", "l"], ["la", "p"], ["um", "ina"], ["de", "ci"], ["Co", "me"], ["ul", "dade"], ["ta", "lha"], ["de", "fin"], ["ti", "vo"], ["re", "no"], ["er", "e"], ["ti", "do"], ["ha", "da"], ["ar", "cos"], ["vi", "dade"], ["se", "gun"], ["bu", "ffer"], ["re", "comp"], ["me", "câ"], ["si", "ona"], ["com", "porta"], ["pró", "pri"], ["def", "ine"], ["tes", "e"], ["exi", "gem"], ["ali", "za"], ["eng", "ines"], ["con", "ce"], ["cor", "ri"], ["que", "bra"], ["fei", "to"], ["che", "ga"], ["cal", "l"], ["grá", "fica"], ["pas", "sa"], ["sis", "t"], ["pro", "tóti"], ["jog", "ável"], ["tes", "tes"], ["gra", "ndes"], ["har", "d"], ["Ser", "ve"], ["ces", "sibilidade"], ["fic", "uldade"], ["eve", "ntos"], ["pri", "me"], ["val", "e"], ["tra", "va"], ["ent", "idade"], ["back", "end"], ["resp", "onde"], ["hipó", "tese"], ["pare", "cer"], ["comp", "leta"], ["pare", "ce"], ["clás", "si"], ["Remo", "te"], ["estr", "utura"], ["esti", "lo"], ["poli", "mento"], ["rápi", "do"], ["quad", "ro"], ["inte", "iro"], ["cali", "zação"], ["bara", "to"], ["mecâ", "nica"], ["produ", "to"], ["organ", "iza"], ["detal", "he"], ["resol", "ve"], ["trapa", "ça"], ["confi", "gu"], ["reten", "ção"], ["trans", "par"], ["plane", "jar"], ["imedi", "ato"], ["produ", "ção"], ["build", "s"], ["carre", "ga"], ["umina", "ção"], ["forma", "s"], ["diver", "tido"], ["númer", "o"], ["compon", "ent"], ["confor", "me"], ["progres", "so"], ["textura", "s"], ["persona", "gens"], ["comporta", "mento"], ["desenvol", "vimento"], ["1", "4"], ["5", "4"], ["3", "1"], ["2", "7"], ["2", "9"], ["2", "0"], ["4", "3"], ["2", "4"], ["pe", "lo"], ["fo", "ntes"], ["ê", "s"], ["h", "on"], ["A", "ções"], ["p", "al"], ["i", "ts"], ["m", "os"], ["b", "us"], ["T", "he"], ["é", "is"], ["b", "ri"], ["u", "ção"], ["b", "or"], ["f", "is"], ["m", "ã"], ["z", "en"], ["a", "plica"], ["m", "is"], ["í", "n"], ["p", "ular"], ["L", "ua"], ["E", "vent"], ["S", "to"], ["D", "ata"], ["i", "ções"], ["l", "back"], ["b", "li"], ["f", "re"], ["L", "O"], ["a", "par"], ["â", "ncia"], ["P", "er"], ["m", "ulti"], ["á", "gua"], ["S", "hader"], ["x", "o"], ["T", "ex"], ["a", "tu"], ["m", "or"], ["s", "or"], ["s", "l"], ["t", "í"], ["e", "feitos"], ["t", "code"], ["J", "og"], ["u", "la"], ["s", "ente"], ["E", "x"], ["P", "ro"], ["P", "U"], ["w", "are"], ["g", "en"], ["i", "e"], ["f", "as"], ["n", "íveis"], ["h", "t"], ["i", "te"], ["o", "ver"], ["a", "cer"], ["a", "v"], ["L", "o"], ["u", "dio"], ["A", "cessibilidade"], ["r", "emo"], ["f", "r"], ["s", "es"], ["e", "fici"], ["N", "o"], ["S", "treaming"], ["E", "na"], ["o", "te"], ["ç", "os"], ["S", "tu"], ["U", "I"], ["B", "o"], ["M", "en"], ["ê", "m"], ["z", "er"], ["F", "K"], ["h", "ist"], ["v", "em"], ["n", "do"], ["E", "C"], ["g", "os"], ["e", "ix"], ["y", "cas"], ["1", "9"], ["4", "8"], ["ex", "ecu"], ["ta", "da"], ["al", "go"], ["di", "z"], ["en", "ci"], ["do", "u"], ["me", "ntos"], ["re", "g"], ["ti", "vas"], ["ex", "pl"], ["ou", "tros"], ["te", "c"], ["ne", "ces"], ["la", "do"], ["ph", "ys"], ["te", "ch"], ["de", "bug"], ["re", "f"], ["ba", "king"], ["ex", "porta"], ["li", "m"], ["ex", "tra"], ["mo", "der"], ["in", "c"], ["ol", "lo"], ["th", "ro"], ["ug", "h"], ["ti", "ming"], ["AA", "A"], ["ca", "p"], ["ce", "dura"], ["pé", "s"], ["mã", "os"], ["le", "va"], ["di", "gi"], ["al", "vo"], ["ca", "be"], ["má", "qu"], ["em", "pen"], ["Mo", "du"], ["le", "Scripts"], ["en", "vi"], ["me", "n"], ["pu", "bl"], ["te", "la"], ["LO", "D"], ["el", "ho"], ["ce", "be"], ["ra", "te"], ["Re", "du"], ["in", "ar"], ["sl", "ice"], ["to", "que"], ["im", "pac"], ["de", "mais"], ["ju", "nto"], ["té", "c"], ["lu", "ta"], ["au", "tomati"], ["so", "a"], ["me", "de"], ["ba", "ix"], ["se", "ed"], ["fi", "xa"], ["il", "uminação"], ["ht", "map"], ["ta", "man"], ["ju", "ntas"], ["lu", "gar"], ["it", "box"], ["ti", "ça"], ["ix", "a"], ["lo", "calização"], ["op", "ções"], ["di", "ficuldade"], ["ba", "talha"], ["fr", "us"], ["pa", "ck"], ["ca", "che"], ["mu", "da"], ["fa", "ixas"], ["bo", "m"], ["ca", "ra"], ["ti", "va"], ["EC", "S"], ["jé", "te"], ["ti", "mes"], ["to", "car"], ["ar", "d"], ["cla", "ra"], ["est", "ão"], ["con", "s"], ["des", "tr"], ["ári", "a"], ["res", "posta"], ["eta", "pa"], ["con", "str"], ["bra", "s"], ["pro", "fis"], ["nas", "ce"], ["pro", "cedura"], ["sem", "pre"], ["pro", "por"], ["cor", "te"], ["des", "empen"], ["com", "parti"], ["Pla", "y"], ["tra", "te"], ["per", "der"], ["com", "pa"], ["lan", "çamento"], ["gan", "ha"], ["pla", "ca"], ["cre", "ve"], ["lis", "t"], ["res", "to"], ["par", "tí"], ["cul", "as"], ["pli", "fica"], ["lin", "ha"], ["pes", "soa"], ["est", "á"], ["mun", "dos"], ["fas", "es"], ["ent", "os"], ["lon", "go"], ["jus", "tiça"], ["ver", "y"], ["str", "ing"], ["tra", "ção"], ["cus", "ta"], ["pro", "ps"], ["var", "ia"], ["Ena", "ble"], ["par", "tes"], ["tor", "na"], ["Stu", "dio"], ["ter", "reno"], ["per", "mi"], ["Men", "os"], ["ent", "ram"], ["int", "en"], ["zer", "o"], ["ent", "ão"], ["bra", "ço"], ["cha", "ve"], ["pac", "ing"], ["rac", "ter"], ["ens", "ina"], ["tor", "ial"], ["tes", "t"], ["ver", "siona"], ["com", "mi"], ["enti", "dades"], ["prin", "ci"], ["cont", "ato"], ["ollo", "w"], ["thro", "ugh"], ["sion", "al"], ["comb", "ina"], ["digi", "tal"], ["ajus", "te"], ["máqu", "ina"], ["crip", "t"], ["roda", "m"], ["Modu", "leScripts"], ["limi", "te"], ["bara", "ta"], ["asse", "ts"], ["pres", "são"], ["equi", "pe"], ["cali", "bra"], ["inte", "gra"], ["hard", "ware"], ["depu", "rar"], ["asse", "t"], ["limi", "tes"], ["prec", "is"], ["frus", "tração"], ["Come", "ce"], ["inte", "ira"], ["play", "er"], ["pool", "ing"], ["jéte", "is"], ["faci", "li"], ["ycas", "t"], ["autor", "iza"], ["conte", "x"], ["arqui", "vos"], ["difer", "enci"], ["explo", "its"], ["conce", "ito"], ["resol", "ução"], ["Anima", "ção"], ["corri", "ge"], ["resul", "tado"], ["comun", "icação"], ["Event", "s"], ["mater", "ial"], ["escul", "tura"], ["check", "list"], ["trans", "forma"], ["taman", "ho"], ["númer", "os"], ["acele", "ra"], ["diver", "são"], ["carre", "gar"], ["camin", "hada"], ["inimi", "gos"], ["segun", "dos"], ["constr", "uir"], ["profis", "sional"], ["transi", "ções"], ["Remote", "Events"], ["clássi", "co"], ["imposs", "íveis"], ["invent", "ário"], ["string", "s"], ["trabal", "ho"], ["Enable", "d"], ["deforma", "ção"], ["protóti", "po"], ["interpo", "lação"], ["economi", "a"], ["ferrame", "ntas"], ["configu", "ra"], ["program", "mer"], ["desempen", "ho"], ["automati", "zados"], ["superfíci", "e"], ["Streaming", "Enabled"], ["3", "3"], ["4", "6"], ["6", "8"], ["2", "3"], ["2", "5"], ["4", "0"], ["1", "8"], ["5", "1"], ["8", "1"], ["2", "8"], ["3", "7"], ["2", "1"], ["4", "4"], ["F", "a"], ["m", "é"], ["9", "7"], ["8", "0"], ["4", "1"], ["2", "6"], ["3", "4"], ["i", "dio"], ["Q", "u"], ["g", "estão"], ["i", "tar"], ["a", "conte"], ["F", "er"], ["b", "ém"], ["d", "ica"], ["i", "le"], ["n", "em"], ["s", "ária"], ["s", "al"], ["g", "re"], ["s", "w"], ["k", "no"], ["c", "ts"], ["s", "pe"], ["z", "es"], ["b", "as"], ["a", "ts"], ["2", "D"], ["c", "í"], ["f", "ollow"], ["â", "ne"], ["R", "ig"], ["a", "tor"], ["s", "ens"], ["t", "ing"], ["â", "me"], ["r", "er"], ["t", "ica"], ["m", "ão"], ["s", "cript"], ["l", "hora"], ["v", "ice"], ["M", "ant"], ["U", "se"], ["b", "el"], ["i", "aliza"], ["l", "ular"], ["a", "compa"], ["ê", "nci"], ["M", "e"], ["n", "ível"], ["s", "ões"], ["d", "ist"], ["n", "c"], ["I", "n"], ["v", "ári"], ["a", "pro"], ["x", "ima"], ["r", "ug"], ["s", "ha"], ["u", "me"], ["u", "eta"], ["C", "on"], ["G", "a"], ["a", "g"], ["J", "u"], ["í", "do"], ["n", "icas"], ["A", "nti"], ["ú", "til"], ["A", "u"], ["G", "PU"], ["g", "alo"], ["O", "timi"], ["s", "treaming"], ["e", "ra"], ["v", "á"], ["g", "lo"], ["s", "on"], ["d", "in"], ["s", "ys"], ["P", "ar"], ["g", "ia"], ["O", "ver"], ["E", "le"], ["k", "in"], ["n", "ed"], ["h", "itbox"], ["g", "ol"], ["B", "al"], ["á", "udio"], ["i", "ores"], ["m", "y"], ["S", "im"], ["D", "1"], ["a", "pre"], ["m", "ine"], ["a", "té"], ["f", "im"], ["l", "os"], ["s", "ar"], ["á", "veis"], ["E", "les"], ["D", "o"], ["g", "ere"], ["m", "ú"], ["T", "ran"], ["c", "res"], ["y", "box"], ["a", "os"], ["h", "os"], ["i", "os"], ["i", "o"], ["z", "in"], ["s", "pacing"], ["x", "i"], ["s", "us"], ["P", "o"], ["m", "ás"], ["S", "iste"], ["i", "ente"], ["g", "n"], ["u", "ém"], ["b", "er"], ["e", "ep"], ["y", "ote"], ["p", "un"], ["i", "do"], ["S", "em"], ["t", "êm"], ["j", "amento"], ["D", "i"], ["ú", "nica"], ["c", "entra"], ["T", "er"], ["L", "og"], ["f", "ia"], ["j", "a"], ["S", "ave"], ["t", "ão"], ["F", "í"], ["B", "B"], ["á", "log"], ["L", "e"], ["e", "very"], ["s", "ma"], ["w", "it"], ["h", "is"], ["e", "ps"], ["g", "es"], ["9", "5"], ["8", "3"], ["5", "8"], ["7", "0"], ["4", "7"], ["9", "2"], ["4", "2"], ["3", "2"], ["2", "2"], ["ar", "ti"], ["se", "u"], ["en", "de"], ["to", "u"], ["fa", "to"], ["su", "gestão"], ["po", "de"], ["re", "nde"], ["bo", "as"], ["fo", "co"], ["de", "v"], ["in", "je"], ["ex", "por"], ["in", "forma"], ["cl", "are"], ["no", "t"], ["so", "me"], ["ac", "tion"], ["ti", "es"], ["re", "nder"], ["ga", "mes"], ["me", "chan"], ["us", "es"], ["co", "bra"], ["an", "éis"], ["mi", "lh"], ["al", "gun"], ["ta", "das"], ["ça", "m"], ["am", "bi"], ["As", "sim"], ["cí", "pi"], ["nt", "âne"], ["ar", "tes"], ["an", "al"], ["de", "zen"], ["da", "do"], ["li", "z"], ["ou", "tro"], ["ma", "pe"], ["ri", "l"], ["ín", "u"], ["na", "tura"], ["in", "ver"], ["ro", "ta"], ["al", "c"], ["de", "gra"], ["di", "ção"], ["ua", "gem"], ["op", "cional"], ["me", "lhora"], ["en", "ha"], ["sa", "gens"], ["in", "da"], ["ta", "bel"], ["ce", "lular"], ["us", "e"], ["fa", "ça"], ["Me", "ça"], ["ge", "ram"], ["di", "min"], ["nc", "ing"], ["ti", "dos"], ["al", "be"], ["me", "tal"], ["os", "idade"], ["re", "cebe"], ["ri", "ga"], ["ex", "pressão"], ["is", "o"], ["in", "di"], ["si", "lh"], ["Fa", "ça"], ["fe", "el"], ["Ga", "me"], ["er", "os"], ["Ju", "ice"], ["tr", "em"], ["ru", "ído"], ["ne", "tcode"], ["ro", "ll"], ["ti", "ro"], ["de", "tec"], ["as", "s"], ["he", "ad"], ["co", "man"], ["Au", "tomati"], ["as", "sim"], ["ga", "ra"], ["un", "idade"], ["es", "sen"], ["ci", "al"], ["fi", "ling"], ["di", "r"], ["en", "do"], ["re", "du"], ["bi", "da"], ["vá", "li"], ["ba", "te"], ["el", "em"], ["pi", "nta"], ["ca", "ixas"], ["do", "ll"], ["pe", "ti"], ["ti", "vos"], ["ca", "ixa"], ["su", "por"], ["re", "trabalho"], ["en", "or"], ["to", "do"], ["op", "s"], ["re", "cur"], ["co", "re"], ["re", "te"], ["qu", "ant"], ["tu", "ri"], ["nt", "ar"], ["ol", "s"], ["do", "res"], ["bo", "a"], ["tu", "ma"], ["re", "torna"], ["ra", "in"], ["te", "las"], ["mú", "sica"], ["si", "dade"], ["de", "pen"], ["ar", "esta"], ["De", "pois"], ["pe", "dem"], ["so", "zin"], ["in", "ua"], ["ve", "nde"], ["al", "ter"], ["ad", "ici"], ["to", "on"], ["lu", "ção"], ["tr", "ás"], ["or", "iente"], ["ir", "os"], ["si", "gn"], ["co", "pla"], ["av", "isa"], ["co", "leta"], ["qu", "ista"], ["fi", "x"], ["te", "p"], ["ul", "ando"], ["vi", "zar"], ["ll", "er"], ["mi", "lis"], ["To", "do"], ["ce", "ira"], ["as", "sist"], ["ti", "vidade"], ["pa", "ga"], ["en", "ga"], ["me", "ta"], ["en", "sa"], ["bo", "ard"], ["tu", "torial"], ["ti", "zação"], ["ob", "ser"], ["an", "o"], ["se", "ma"], ["mu", "dou"], ["vi", "ram"], ["mo", "mento"], ["re", "lo"], ["ti", "fica"], ["ro", "bus"], ["mi", "gra"], ["ni", "co"], ["ro", "m"], ["fi", "o"], ["bo", "tão"], ["mo", "ver"], ["Fí", "sica"], ["AA", "BB"], ["me", "nor"], ["ti", "le"], ["ra", "ycast"], ["di", "álog"], ["ke", "eps"], ["le", "vel"], ["lig", "ência"], ["fra", "se"], ["hon", "esta"], ["ver", "dade"], ["Fer", "rame"], ["reg", "is"], ["tam", "bém"], ["por", "que"], ["cle", "ar"], ["kno", "w"], ["cle", "an"], ["eta", "pas"], ["cla", "ras"], ["rig", "ging"], ["ver", "sion"], ["bri", "r"], ["cor", "tar"], ["tic", "ar"], ["per", "di"], ["fer", "e"], ["som", "bras"], ["pos", "e"], ["pes", "o"], ["blo", "que"], ["tre", "e"], ["mis", "tura"], ["and", "ar"], ["cor", "rer"], ["sta", "te"], ["Lua", "u"], ["pre", "vê"], ["men", "sagens"], ["Sto", "re"], ["fal", "lback"], ["lon", "ge"], ["gra", "de"], ["cus", "tam"], ["nci", "ar"], ["gra", "ça"], ["des", "creve"], ["rug", "osidade"], ["rea", "ge"], ["atu", "al"], ["mui", "to"], ["pes", "os"], ["vol", "ume"], ["faz", "em"], ["con", "junto"], ["jus", "to"], ["ant", "i"], ["che", "at"], ["cus", "to"], ["les", "s"], ["Tes", "tes"], ["alo", "ca"], ["mos", "tra"], ["gar", "galo"], ["apo", "nta"], ["art", "ist"], ["vis", "ão"], ["fun", "ction"], ["col", "lap"], ["glo", "bal"], ["cri", "ando"], ["sua", "ves"], ["din", "â"], ["lig", "htmap"], ["tic", "le"], ["sys", "tem"], ["kin", "ned"], ["mes", "h"], ["evi", "tam"], ["sim", "plifica"], ["cor", "po"], ["com", "peti"], ["con", "siste"], ["Bal", "ance"], ["bal", "ance"], ["ira", "s"], ["pas", "se"], ["nti", "on"], ["vol", "tam"], ["ses", "são"], ["pro", "ntos"], ["edi", "tor"], ["cos", "tuma"], ["est", "ú"], ["min", "ar"], ["ter", "rain"], ["tri", "lhas"], ["cin", "za"], ["cen", "ários"], ["blo", "cos"], ["mas", "sa"], ["pos", "ições"], ["más", "cara"], ["bor", "da"], ["col", "or"], ["pro", "ces"], ["Pro", "jéteis"], ["con", "quista"], ["ing", "uém"], ["ter", "min"], ["sua", "vizar"], ["tes", "ta"], ["gra", "vidade"], ["ter", "ceira"], ["ens", "as"], ["gra", "tu"], ["vis", "ível"], ["ant", "er"], ["lan", "çar"], ["one", "tização"], ["jus", "ta"], ["sor", "ri"], ["res", "tri"], ["cre", "va"], ["cen", "a"], ["des", "de"], ["eix", "os"], ["Ver", "sion"], ["ler", "p"], ["rea", "is"], ["fal", "a"], ["sma", "ll"], ["wit", "h"], ["inte", "ligência"], ["arti", "ficial"], ["dire", "ta"], ["phys", "ics"], ["dire", "ção"], ["tura", "s"], ["prin", "cípi"], ["faci", "al"], ["ajus", "tar"], ["cont", "ínu"], ["cabe", "ça"], ["para", "do"], ["ling", "uagem"], ["Mant", "enha"], ["Data", "Store"], ["resp", "on"], ["call", "s"], ["ênci", "as"], ["apar", "elho"], ["dist", "ância"], ["Redu", "zir"], ["vári", "as"], ["repe", "tidos"], ["apro", "xima"], ["albe", "do"], ["indi", "e"], ["silh", "ueta"], ["sist", "ência"], ["roll", "back"], ["vali", "dar"], ["head", "less"], ["gara", "nte"], ["paco", "te"], ["mant", "endo"], ["redu", "z"], ["come", "ça"], ["baix", "o"], ["elem", "entos"], ["over", "draw"], ["segu", "e"], ["deci", "dem"], ["enor", "me"], ["remo", "ve"], ["comp", "leto"], ["apre", "nder"], ["comp", "le"], ["game", "play"], ["vali", "de"], ["fica", "m"], ["publ", "icação"], ["liga", "m"], ["ybox", "ing"], ["mode", "ling"], ["hist", "ória"], ["cont", "inua"], ["isso", "lução"], ["dire", "to"], ["sign", "ifica"], ["obje", "ct"], ["rápi", "dos"], ["poss", "ível"], ["enga", "jamento"], ["segu", "ra"], ["Play", "test"], ["expl", "icar"], ["muda", "n"], ["relo", "ad"], ["desa", "fio"], ["mant", "er"], ["deci", "de"], ["pres", "sion"], ["usada", "s"], ["rende", "rização"], ["trapa", "ças"], ["neces", "sária"], ["expor", "tar"], ["clare", "za"], ["algun", "s"], ["insta", "ntâne"], ["artes", "anal"], ["anima", "dor"], ["dezen", "as"], ["targe", "ting"], ["anima", "ções"], ["moder", "nas"], ["confi", "e"], ["tabel", "as"], ["peque", "nas"], ["otimi", "zação"], ["sobre", "posta"], ["frame", "rate"], ["desen", "ho"], ["insta", "nciar"], ["multi", "plica"], ["targe", "ts"], ["produ", "zir"], ["partí", "culas"], ["impac", "to"], ["imedi", "ata"], ["coman", "do"], ["camin", "ho"], ["essen", "cial"], ["parti", "r"], ["supor", "te"], ["comun", "idade"], ["econo", "my"], ["recur", "sos"], ["quant", "os"], ["varia", "ção"], ["efici", "entes"], ["prime", "iro"], ["comun", "ica"], ["permi", "te"], ["produ", "za"], ["extra", "i"], ["sozin", "ho"], ["acele", "ram"], ["destr", "uir"], ["times", "tep"], ["milis", "segundos"], ["board", "ing"], ["obser", "va"], ["peque", "nos"], ["commi", "t"], ["inimi", "go"], ["robus", "to"], ["forma", "to"], ["proje", "tos"], ["trava", "mentos"], ["contex", "to"], ["aconte", "ce"], ["princi", "pal"], ["própri", "o"], ["render", "ing"], ["transi", "ção"], ["natura", "l"], ["acompa", "n"], ["vértic", "es"], ["propor", "cional"], ["shader", "s"], ["contro", "la"], ["collap", "se"], ["vértic", "e"], ["adapta", "tivo"], ["compon", "entes"], ["proces", "sa"], ["contro", "ller"], ["buffer", "ing"], ["recomp", "ensas"], ["recomp", "ensa"], ["restri", "ção"], ["centra", "l"], ["tifica", "ção"], ["compon", "ente"], ["facili", "ta"], ["diálog", "o"], ["contro", "l"], ["ferrame", "nta"], ["exporta", "ção"], ["interpo", "la"], ["importa", "ntes"], ["reprodu", "z"], ["progres", "são"], ["program", "ming"], ["oriente", "d"], ["calibra", "do"], ["princípi", "os"], ["comparti", "lha"], ["transpar", "ências"], ["Automati", "zar"], ["verifica", "m"], ["versiona", "mento"], ["diferenci", "a"], ["component", "s"], ["procedura", "l"], ["superfíci", "es"], ["configura", "ções"], ["estrutura", "do"], ["sobreposta", "s"], ["4", "5"], ["7", "7"], ["8", "9"], ["5", "9"], ["5", "0"], ["7", "5"], ["9", "3"], ["9", "6"], ["8", "7"], ["6", "5"], ["5", "6"], ["3", "6"], ["9", "1"], ["7", "2"], ["7", "6"], ["5", "5"], ["6", "6"], ["8", "6"], ["5", "7"], ["9", "8"], ["8", "4"], ["8", "2"], ["9", "9"], ["5", "2"], ["9", "4"], ["6", "9"], ["6", "4"], ["6", "0"], ["6", "3"], ["6", "2"], ["3", "9"], ["\n\n", "\n\n"], ["7", "4"], ["6", "1"], ["ti", "cos"], ["3", "8"], ["4", "9"], ["ex", "ter"], ["exter", "nas"], ["l", "ês"], ["l", "ici"], ["u", "tivas"], ["r", "ma"], ["í", "ci"], ["b", "á"], ["á", "tic"], ["o", "la"], ["g", "al"], ["F", "o"], ["s", "as"], ["v", "re"], ["c", "ens"], ["u", "ra"], ["a", "pa"], ["k", "ens"], ["H", "on"], ["o", "w"], ["l", "lig"], ["r", "un"], ["W", "h"], ["u", "r"], ["p", "me"], ["h", "and"], ["p", "rac"], ["I", "ts"], ["n", "ic"], ["l", "ps"], ["P", "ular"], ["c", "ane"], ["A", "brir"], ["i", "lhas"], ["I", "lhas"], ["B", "a"], ["o", "c"], ["i", "on"], ["h", "u"], ["f", "us"], ["s", "qu"], ["s", "tre"], ["t", "ch"], ["a", "nte"], ["c", "s"], ["y", "frame"], ["v", "í"], ["b", "ru"], ["B", "l"], ["k", "ine"], ["C", "in"], ["á", "tica"], ["i", "ar"], ["v", "ada"], ["F", "un"], ["E", "str"], ["u", "ture"], ["S", "cript"], ["d", "Sto"], ["S", "tar"], ["s", "enti"], ["v", "inda"], ["y", "U"], ["S", "a"], ["P", "u"], ["i", "ter"], ["í", "con"], ["b", "na"], ["v", "ul"], ["á", "lis"], ["A", "tu"], ["b", "ine"], ["d", "ista"], ["a", "grade"], ["D", "ra"], ["M", "ui"], ["G", "ra"], ["s", "t"], ["u", "lação"], ["e", "dades"], ["s", "icas"], ["d", "ú"], ["s", "tri"], ["t", "ível"], ["M", "or"], ["r", "iso"], ["f", "one"], ["e", "ze"], ["P", "e"], ["l", "ho"], ["c", "ro"], ["p", "is"], ["g", "ível"], ["N", "e"], ["t", "ência"], ["R", "ol"], ["s", "ário"], ["v", "esti"], ["j", "ane"], ["B", "uild"], ["n", "u"], ["a", "pare"], ["s", "mo"], ["r", "em"], ["C", "PU"], ["p", "ma"], ["G", "e"], ["e", "ator"], ["d", "un"], ["w", "ave"], ["W", "ave"], ["j", "ac"], ["c", "é"], ["G", "era"], ["I", "l"], ["m", "icas"], ["L", "ig"], ["C", "us"], ["C", "en"], ["f", "og"], ["f", "uma"], ["e", "ira"], ["P", "art"], ["í", "culas"], ["s", "kinned"], ["S", "kinned"], ["P", "es"], ["P", "h"], ["c", "á"], ["C", "ol"], ["g", "doll"], ["R", "ag"], ["L", "imi"], ["H", "itbox"], ["F", "rame"], ["s", "tar"], ["a", "tivos"], ["n", "isso"], ["a", "cessibilidade"], ["b", "ar"], ["l", "to"], ["n", "is"], ["t", "ável"], ["p", "ú"], ["L", "i"], ["o", "pe"], ["z", "ô"], ["D", "a"], ["T", "or"], ["f", "lação"], ["u", "le"], ["D", "7"], ["D", "30"], ["M", "elho"], ["t", "f"], ["ó", "li"], ["z", "ing"], ["U", "sar"], ["T", "ra"], ["a", "us"], ["r", "é"], ["F", "il"], ["M", "a"], ["a", "inda"], ["u", "ti"], ["n", "um"], ["f", "lu"], ["A", "P"], ["S", "o"], ["Á", "udio"], ["s", "inc"], ["n", "iza"], ["G", "re"], ["z", "as"], ["r", "ível"], ["n", "en"], ["h", "uma"], ["a", "nto"], ["P", "ers"], ["o", "cu"], ["g", "â"], ["E", "d"], ["r", "cula"], ["á", "re"], ["a", "massa"], ["a", "mi"], ["g", "áveis"], ["z", "io"], ["P", "os"], ["l", "ê"], ["S", "pacing"], ["u", "em"], ["F", "ollow"], ["a", "pó"], ["f", "le"], ["n", "ando"], ["d", "ril"], ["o", "posição"], ["o", "ito"], ["c", "un"], ["d", "ários"], ["m", "ic"], ["d", "ê"], ["d", "issolução"], ["D", "issolução"], ["a", "baixo"], ["E", "feito"], ["e", "feito"], ["a", "ge"], ["f", "ri"], ["í", "gu"], ["O", "b"], ["A", "ti"], ["e", "da"], ["N", "inguém"], ["n", "inguém"], ["a", "copla"], ["F", "ix"], ["u", "ber"], ["í", "s"], ["R", "ende"], ["S", "w"], ["f", "utura"], ["a", "tra"], ["C", "ha"], ["N", "ão"], ["P", "are"], ["C", "â"], ["a", "im"], ["A", "im"], ["B", "em"], ["P", "asse"], ["X", "P"], ["t", "ória"], ["e", "j"], ["h", "á"], ["t", "ina"], ["m", "isso"], ["O", "n"], ["a", "pres"], ["p", "ra"], ["T", "u"], ["u", "tos"], ["t", "in"], ["m", "onetização"], ["M", "onetização"], ["t", "óri"], ["s", "ent"], ["w", "in"], ["c", "ê"], ["D", "es"], ["R", "est"], ["a", "bra"], ["b", "in"], ["i", "da"], ["n", "ch"], ["e", "fa"], ["T", "ime"], ["u", "e"], ["í", "da"], ["d", "ice"], ["C", "ódigo"], ["H", "o"], ["s", "é"], ["P", "i"], ["i", "ável"], ["C", "er"], ["c", "um"], ["P", "re"], ["m", "ica"], ["N", "unca"], ["ú", "nico"], ["s", "lo"], ["d", "icas"], ["a", "is"], ["n", "cer"], ["F", "e"], ["a", "per"], ["i", "tos"], ["v", "isa"], ["i", "as"], ["i", "or"], ["D", "el"], ["M", "ulti"], ["i", "gu"], ["u", "tado"], ["i", "tem"], ["ê", "in"], ["s", "forma"], ["S", "pri"], ["e", "rar"], ["r", "íg"], ["i", "das"], ["t", "â"], ["n", "g"], ["p", "õ"], ["c", "ando"], ["i", "zar"], ["g", "it"], ["T", "ile"], ["R", "a"], ["o", "fere"], ["L", "er"], ["a", "tivo"], ["n", "es"], ["A", "o"], ["g", "mento"], ["E", "feitos"], ["I", "m"], ["D", "ano"], ["M", "u"], ["v", "ado"], ["J", "S"], ["V", "ali"], ["n", "ó"], ["P", "on"], ["l", "ões"], ["n", "uma"], ["o", "ci"], ["c", "y"], ["s", "te"], ["u", "p"], ["w", "or"], ["s", "cre"], ["j", "ob"], ["E", "nti"], ["T", "his"], ["a", "vo"], ["i", "d"], ["h", "er"], ["c", "ra"], ["f", "t"], ["s", "pa"], ["t", "hat"], ["a", "ch"], ["l", "en"], ["w", "ard"], ["G", "o"], ["o", "d"], ["e", "ar"], ["w", "at"], ["w", "h"], ["s", "tu"], ["A", "r"], ["t", "is"], ["b", "inar"], ["e", "f"], ["f", "rom"], ["G", "ere"], ["C", "or"], ["d", "ó"], ["n", "ado"], ["n", "ada"], ["A", "no"], ["7", "9"], ["7", "3"], ["8", "5"], ["8", "8"], ["6", "7"], ["nt", "idade"], ["tu", "gu"], ["si", "le"], ["so", "lici"], ["Qu", "ando"], ["in", "ve"], ["fa", "tos"], ["ta", "dos"], ["re", "cus"], ["ul", "tou"], ["ne", "t"], ["ro", "dou"], ["le", "u"], ["ar", "gu"], ["es", "pe"], ["ci", "aliza"], ["he", "ce"], ["bá", "sica"], ["pr", "átic"], ["as", "su"], ["no", "logia"], ["ju", "dica"], ["vi", "ola"], ["ad", "ul"], ["Fo", "ra"], ["li", "vre"], ["to", "kens"], ["se", "gre"], ["in", "ado"], ["ow", "n"], ["en", "ce"], ["of", "ficial"], ["an", "sw"], ["us", "er"], ["Wh", "en"], ["do", "es"], ["th", "ing"], ["sa", "ys"], ["ne", "ver"], ["fa", "cts"], ["so", "ur"], ["di", "d"], ["ci", "ali"], ["de", "velo"], ["ma", "in"], ["no", "log"], ["he", "lps"], ["us", "ers"], ["pl", "an"], ["ab", "er"], ["tu", "rização"], ["Re", "topologia"], ["re", "construir"], ["es", "cane"], ["ar", "es"], ["ac", "hat"], ["es", "ticar"], ["em", "paco"], ["Ba", "king"], ["re", "le"], ["oc", "cl"], ["us", "ion"], ["va", "ture"], ["an", "a"], ["hu", "ras"], ["lu", "em"], ["as", "h"], ["ci", "pa"], ["ar", "cs"], ["se", "con"], ["de", "les"], ["ke", "yframe"], ["pa", "is"], ["re", "fina"], ["te", "ci"], ["Mo", "cap"], ["ví", "de"], ["pe", "za"], ["bl", "end"], ["Bl", "end"], ["ma", "tic"], ["em", "ática"], ["an", "çar"], ["mi", "rar"], ["ma", "ch"], ["du", "ração"], ["co", "ração"], ["de", "ri"], ["ti", "pa"], ["Re", "plica"], ["te", "dSto"], ["ra", "ge"], ["ar", "ma"], ["Re", "tr"], ["yU", "nt"], ["il", "Sa"], ["li", "dar"], ["re", "qu"], ["is", "ições"], ["er", "ro"], ["Pu", "bli"], ["th", "um"], ["di", "vul"], ["an", "ális"], ["su", "pe"], ["mi", "re"], ["at", "las"], ["or", "dem"], ["ta", "s"], ["ma", "das"], ["ma", "lhas"], ["In", "sta"], ["pe", "dra"], ["in", "st"], ["on", "das"], ["le", "xo"], ["di", "dade"], ["ic", "al"], ["fí", "sicas"], ["in", "dú"], ["cl", "ar"], ["so", "bra"], ["si", "ga"], ["ve", "nce"], ["or", "ial"], ["ca", "mera"], ["Pe", "que"], ["ex", "ag"], ["ju", "ice"], ["am", "plifica"], ["co", "le"], ["ba", "ter"], ["ca", "nte"], ["le", "gível"], ["Ne", "tcode"], ["re", "con"], ["ci", "li"], ["la", "tência"], ["ab", "or"], ["da", "gens"], ["ad", "ver"], ["ou", "ro"], ["te", "ge"], ["es", "as"], ["fa", "ti"], ["in", "vesti"], ["Ex", "ecu"], ["de", "dica"], ["au", "to"], ["má", "ti"], ["pi", "la"], ["nu", "mera"], ["re", "gres"], ["da", "no"], ["ju", "ntos"], ["ab", "rem"], ["fi", "l"], ["ui", "ção"], ["me", "dir"], ["de", "man"], ["mi", "pma"], ["ce", "bida"], ["Ge", "ração"], ["al", "eator"], ["ie", "dade"], ["re", "nos"], ["ge", "on"], ["lh", "ar"], ["ad", "jac"], ["pe", "ças"], ["cé", "lu"], ["to", "das"], ["va", "i"], ["co", "la"], ["ps", "ando"], ["op", "ção"], ["co", "er"], ["Il", "uminação"], ["re", "bate"], ["so", "lu"], ["pr", "é"], ["mi", "cos"], ["em", "ite"], ["po", "eira"], ["ma", "gia"], ["ri", "cos"], ["en", "che"], ["fi", "ll"], ["ar", "tic"], ["do", "bras"], ["es", "tran"], ["Ph", "ys"], ["es", "fe"], ["cá", "ps"], ["ul", "as"], ["is", "ão"], ["ra", "gdoll"], ["os", "so"], ["qu", "estão"], ["de", "ve"], ["tu", "p"], ["re", "co"], ["av", "an"], ["ça", "dos"], ["Lo", "calização"], ["ac", "entos"], ["es", "pa"], ["ma", "iores"], ["ta", "be"], ["re", "iras"], ["re", "mape"], ["da", "lto"], ["le", "gen"], ["am", "pli"], ["pú", "bli"], ["li", "ve"], ["Li", "ve"], ["sa", "zô"], ["ni", "cos"], ["Da", "dos"], ["re", "ce"], ["gu", "ia"], ["li", "bra"], ["ne", "iras"], ["in", "flação"], ["té", "dio"], ["mé", "dio"], ["Re", "te"], ["no", "vos"], ["do", "mine"], ["de", "talha"], ["tf", "óli"], ["ca", "ba"], ["pi", "ntar"], ["su", "til"], ["As", "se"], ["us", "o"], ["un", "ifica"], ["ra", "dos"], ["ha", "bili"], ["co", "lado"], ["su", "ces"], ["to", "ols"], ["To", "ols"], ["di", "os"], ["ré", "plica"], ["re", "gi"], ["Ma", "pas"], ["vi", "áveis"], ["to", "le"], ["re", "uti"], ["bi", "bli"], ["Do", "minar"], ["se", "us"], ["pa", "in"], ["mo", "nt"], ["an", "has"], ["ca", "ver"], ["vo", "xel"], ["AP", "I"], ["ge", "rar"], ["Bo", "a"], ["So", "m"], ["si", "ções"], ["mi", "xa"], ["or", "idade"], ["co", "es"], ["em", "pi"], ["ro", "niza"], ["ra", "tivas"], ["me", "tros"], ["Es", "cala"], ["qu", "anto"], ["me", "tro"], ["es", "ca"], ["de", "la"], ["De", "fin"], ["Bo", "x"], ["cu", "bo"], ["Ex", "tr"], ["us", "ões"], ["Es", "cul"], ["ar", "gi"], ["or", "gâ"], ["pe", "ça"], ["vi", "rar"], ["an", "im"], ["ed", "ge"], ["Ed", "ge"], ["ci", "rcula"], ["ol", "hos"], ["bo", "ca"], ["do", "bra"], ["To", "pologia"], ["im", "pedem"], ["va", "zio"], ["po", "nta"], ["ex", "trem"], ["re", "cu"], ["pe", "ração"], ["só", "li"], ["se", "cu"], ["Es", "pa"], ["on", "alidade"], ["xi", "bili"], ["ci", "da"], ["su", "bida"], ["so", "be"], ["an", "çam"], ["do", "ze"], ["te", "nta"], ["Po", "li"], ["li", "za"], ["se", "cun"], ["le", "var"], ["to", "tal"], ["du", "ras"], ["or", "no"], ["fe", "cha"], ["us", "ado"], ["li", "zados"], ["re", "cor"], ["em", "is"], ["si", "va"], ["sa", "ção"], ["mi", "x"], ["na", "tiva"], ["pu", "ros"], ["lo", "tes"], ["te", "tura"], ["ar", "ra"], ["po", "nte"], ["lo", "te"], ["fi", "los"], ["of", "ia"], ["Ob", "je"], ["re", "criar"], ["mo", "eda"], ["fo", "i"], ["es", "cu"], ["ca", "ta"], ["ac", "um"], ["co", "uber"], ["de", "termin"], ["ís", "tica"], ["sw", "eep"], ["Sw", "eep"], ["po", "nt"], ["es", "cor"], ["pu", "ra"], ["co", "yote"], ["Co", "yote"], ["sa", "ir"], ["si", "vo"], ["In", "put"], ["pu", "lo"], ["Câ", "mera"], ["mo", "la"], ["en", "quad"], ["ra", "mento"], ["co", "ber"], ["mi", "ra"], ["pu", "xa"], ["le", "vem"], ["si", "dades"], ["vi", "tória"], ["di", "ária"], ["ej", "ada"], ["in", "validar"], ["as", "tre"], ["Lo", "op"], ["no", "va"], ["Di", "ário"], ["há", "bi"], ["se", "man"], ["ro", "tina"], ["se", "as"], ["es", "for"], ["on", "boarding"], ["On", "boarding"], ["de", "ixa"], ["Tu", "torial"], ["ru", "ba"], ["de", "z"], ["ve", "ni"], ["po", "der"], ["ob", "riga"], ["va", "nta"], ["Pa", "y"], ["vo", "cê"], ["gu", "ntas"], ["vê", "m"], ["ri", "ção"], ["ça", "da"], ["or", "çamento"], ["me", "lh"], ["ve", "dor"], ["es", "tra"], ["té", "gia"], ["No", "me"], ["es", "creva"], ["sa", "ída"], ["as", "ser"], ["As", "ser"], ["su", "posições"], ["ne", "ga"], ["ín", "dice"], ["de", "nt"], ["mé", "tr"], ["pi", "or"], ["ho", "t"], ["Ho", "t"], ["re", "in"], ["re", "carrega"], ["vi", "vo"], ["za", "do"], ["De", "bug"], ["in", "visível"], ["ra", "ios"], ["ac", "re"], ["di", "ta"], ["sé", "ri"], ["mo", "do"], ["ri", "co"], ["Pi", "pe"], ["du", "ção"], ["re", "integra"], ["ca", "racter"], ["re", "lançamento"], ["lo", "ja"], ["va", "cidade"], ["re", "pro"], ["es", "creve"], ["me", "ia"], ["sa", "ves"], ["ig", "os"], ["pi", "do"], ["po", "int"], ["tu", "ais"], ["ve", "ncer"], ["Di", "ficuldade"], ["ru", "im"], ["ir", "ri"], ["Fe", "edback"], ["ou", "vi"], ["ex", "plica"], ["re", "visa"], ["au", "di"], ["tr", "ês"], ["de", "corri"], ["pl", "icar"], ["le", "ntos"], ["Ex", "em"], ["jé", "til"], ["co", "isa"], ["hi", "erar"], ["re", "us"], ["de", "limi"], ["al", "in"], ["Do", "is"], ["re", "tâ"], ["ng", "ul"], ["co", "li"], ["põ", "em"], ["es", "quer"], ["re", "ndo"], ["xi", "mo"], ["Se", "pare"], ["pe", "dir"], ["ti", "les"], ["Ra", "ycast"], ["ra", "io"], ["po", "nto"], ["co", "brir"], ["Qu", "ase"], ["gu", "nta"], ["te", "cla"], ["se", "ja"], ["ex", "ato"], ["so", "ma"], ["po", "ntos"], ["ua", "is"], ["da", "í"], ["Re", "produza"], ["Im", "pri"], ["re", "leva"], ["ge", "le"], ["ti", "r"], ["re", "car"], ["Mu", "de"], ["JS", "ON"], ["nó", "s"], ["es", "cri"], ["Es", "co"], ["re", "cri"], ["Le", "ia"], ["do", "cu"], ["me", "nta"], ["te", "ntar"], ["ta", "xa"], ["vi", "lões"], ["Po", "ol"], ["ve", "itar"], ["fi", "la"], ["os", "a"], ["li", "xo"], ["cy", "cle"], ["th", "re"], ["re", "ad"], ["up", "da"], ["ac", "ros"], ["ra", "tes"], ["li", "ke"], ["mo", "vem"], ["he", "al"], ["re", "usa"], ["id", "s"], ["de", "ep"], ["in", "her"], ["Le", "vel"], ["te", "ach"], ["ch", "al"], ["re", "ward"], ["Go", "od"], ["ro", "du"], ["sa", "fe"], ["th", "en"], ["wh", "ere"], ["ge", "t"], ["te", "am"], ["Ar", "tis"], ["sa", "ges"], ["Lo", "ck"], ["ef", "ul"], ["ke", "ep"], ["ci", "ble"], ["ou", "t"], ["em", "ula"], ["es", "ses"], ["Bo", "as"], ["Mo", "de"], ["Es", "creva"], ["nú", "cle"], ["to", "ti"], ["gi", "ga"], ["ab", "ando"], ["cu", "ra"], ["er", "ros"], ["is", "tem"], ["ide", "ntidade"], ["ent", "ende"], ["por", "tugu"], ["bra", "sile"], ["ace", "ita"], ["ing", "lês"], ["pos", "sibilidade"], ["ide", "ia"], ["ace", "itar"], ["rma", "ção"], ["íci", "ta"], ["con", "hece"], ["tec", "nologia"], ["pre", "judica"], ["ter", "mos"], ["ile", "gal"], ["des", "sas"], ["lin", "has"], ["des", "necessária"], ["per", "ten"], ["sal", "var"], ["bus", "car"], ["apa", "gar"], ["mem", "óri"], ["sen", "has"], ["tre", "inado"], ["Hon", "esti"], ["pro", "nta"], ["run", "s"], ["lan", "gua"], ["hon", "est"], ["per", "for"], ["spe", "ciali"], ["pme", "nt"], ["bas", "ics"], ["tic", "es"], ["nic", "he"], ["log", "ic"], ["ref", "uses"], ["che", "ats"], ["tex", "turização"], ["lim", "pa"], ["des", "perdi"], ["cur", "vature"], ["bor", "das"], ["pes", "ado"], ["eng", "ana"], ["exi", "be"], ["ran", "huras"], ["fus", "os"], ["cos", "turas"], ["Qua", "is"], ["inc", "luem"], ["squ", "ash"], ["sta", "ging"], ["dar", "y"], ["cap", "tura"], ["cap", "ture"], ["gra", "va"], ["bru", "to"], ["lim", "peza"], ["cor", "rig"], ["des", "liz"], ["val", "entes"], ["par", "âme"], ["tro", "car"], ["Cin", "emática"], ["alc", "ançar"], ["apo", "iar"], ["cli", "pes"], ["con", "dição"], ["Fun", "ction"], ["Ser", "ver"], ["Ser", "vice"], ["ter", "Play"], ["zen", "amento"], ["ser", "ializa"], ["des", "cri"], ["bna", "il"], ["Atu", "aliza"], ["fre", "que"], ["per", "feito"], ["Com", "bine"], ["evi", "te"], ["ver", "sões"], ["Per", "to"], ["per", "cebe"], ["Dra", "w"], ["Mui", "tos"], ["mui", "tas"]]}